{
  "version": "1.0",
  "truncation": null,
  "padding": null,
  "added_tokens": [],
  "normalizer": null,
  "pre_tokenizer": null,
  "post_processor": null,
  "decoder": null,
  "model": {
    "type": "BPE",
    "dropout": null,
    "unk_token": null,
    "continuing_subword_prefix": null,
    "end_of_word_suffix": null,
    "fuse_unk": false,
    "byte_fallback": false,
    "ignore_merges": false,
    "vocab": {
      "!": 0,
      "\"": 1,
      "#": 2,
      "$": 3,
      "%": 4,
      "&": 5,
      "'": 6,
      "(": 7,
      ")": 8,
      "*": 9,
      "+": 10,
      ",": 11,
      "-": 12,
      ".": 13,
      "/": 14,
      "0": 15,
      "1": 16,
      "2": 17,
      "3": 18,
      "4": 19,
      "5": 20,
      "6": 21,
      "7": 22,
      "8": 23,
      "9": 24,
      ":": 25,
      ";": 26,
      "<": 27,
      "=": 28,
      ">": 29,
      "?": 30,
      "@": 31,
      "A": 32,
      "B": 33,
      "C": 34,
      "D": 35,
      "E": 36,
      "F": 37,
      "G": 38,
      "H": 39,
      "I": 40,
      "J": 41,
      "K": 42,
      "L": 43,
      "M": 44,
      "N": 45,
      "O": 46,
      "P": 47,
      "Q": 48,
      "R": 49,
      "S": 50,
      "T": 51,
      "U": 52,
      "V": 53,
      "W": 54,
      "X": 55,
      "Y": 56,
      "Z": 57,
      "[": 58,
      "\\": 59,
      "]": 60,
      "^": 61,
      "_": 62,
      "`": 63,
      "a": 64,
      "b": 65,
      "c": 66,
      "d": 67,
      "e": 68,
      "f": 69,
      "g": 70,
      "h": 71,
      "i": 72,
      "j": 73,
      "k": 74,
      "l": 75,
      "m": 76,
      "n": 77,
      "o": 78,
      "p": 79,
      "q": 80,
      "r": 81,
      "s": 82,
      "t": 83,
      "u": 84,
      "v": 85,
      "w": 86,
      "x": 87,
      "y": 88,
      "z": 89,
      "{": 90,
      "|": 91,
      "}": 92,
      "~": 93,
      "¡": 94,
      "¢": 95,
      "£": 96,
      "¤": 97,
      "¥": 98,
      "¦": 99,
      "§": 100,
      "¨": 101,
      "©": 102,
      "ª": 103,
      "«": 104,
      "¬": 105,
      "®": 106,
      "¯": 107,
      "°": 108,
      "±": 109,
      "²": 110,
      "³": 111,
      "´": 112,
      "µ": 113,
      "¶": 114,
      "·": 115,
      "¸": 116,
      "¹": 117,
      "º": 118,
      "»": 119,
      "¼": 120,
      "½": 121,
      "¾": 122,
      "¿": 123,
      "À": 124,
      "Á": 125,
      "Â": 126,
      "Ã": 127,
      "Ä": 128,
      "Å": 129,
      "Æ": 130,
      "Ç": 131,
      "È": 132,
      "É": 133,
      "Ê": 134,
      "Ë": 135,
      "Ì": 136,
      "Í": 137,
      "Î": 138,
      "Ï": 139,
      "Ð": 140,
      "Ñ": 141,
      "Ò": 142,
      "Ó": 143,
      "Ô": 144,
      "Õ": 145,
      "Ö": 146,
      "×": 147,
      "Ø": 148,
      "Ù": 149,
      "Ú": 150,
      "Û": 151,
      "Ü": 152,
      "Ý": 153,
      "Þ": 154,
      "ß": 155,
      "à": 156,
      "á": 157,
      "â": 158,
      "ã": 159,
      "ä": 160,
      "å": 161,
      "æ": 162,
      "ç": 163,
      "è": 164,
      "é": 165,
      "ê": 166,
      "ë": 167,
      "ì": 168,
      "í": 169,
      "î": 170,
      "ï": 171,
      "ð": 172,
      "ñ": 173,
      "ò": 174,
      "ó": 175,
      "ô": 176,
      "õ": 177,
      "ö": 178,
      "÷": 179,
      "ø": 180,
      "ù": 181,
      "ú": 182,
      "û": 183,
      "ü": 184,
      "ý": 185,
      "þ": 186,
      "ÿ": 187,
      "Ā": 188,
      "ā": 189,
      "Ă": 190,
      "ă": 191,
      "Ą": 192,
      "ą": 193,
      "Ć": 194,
      "ć": 195,
      "Ĉ": 196,
      "ĉ": 197,
      "Ċ": 198,
      "ċ": 199,
      "Č": 200,
      "č": 201,
      "Ď": 202,
      "ď": 203,
      "Đ": 204,
      "đ": 205,
      "Ē": 206,
      "ē": 207,
      "Ĕ": 208,
      "ĕ": 209,
      "Ė": 210,
      "ė": 211,
      "Ę": 212,
      "ę": 213,
      "Ě": 214,
      "ě": 215,
      "Ĝ": 216,
      "ĝ": 217,
      "Ğ": 218,
      "ğ": 219,
      "Ġ": 220,
      "ġ": 221,
      "Ģ": 222,
      "ģ": 223,
      "Ĥ": 224,
      "ĥ": 225,
      "Ħ": 226,
      "ħ": 227,
      "Ĩ": 228,
      "ĩ": 229,
      "Ī": 230,
      "ī": 231,
      "Ĭ": 232,
      "ĭ": 233,
      "Į": 234,
      "į": 235,
      "İ": 236,
      "ı": 237,
      "Ĳ": 238,
      "ĳ": 239,
      "Ĵ": 240,
      "ĵ": 241,
      "Ķ": 242,
      "ķ": 243,
      "ĸ": 244,
      "Ĺ": 245,
      "ĺ": 246,
      "Ļ": 247,
      "ļ": 248,
      "Ľ": 249,
      "ľ": 250,
      "Ŀ": 251,
      "ŀ": 252,
      "Ł": 253,
      "ł": 254,
      "Ń": 255,
      "ĠĠ": 256,
      "--": 257,
      "eĠ": 258,
      "ĠĠĠĠ": 259,
      "th": 260,
      "----": 261,
      "sĠ": 262,
      "tĠ": 263,
      "dĠ": 264,
      ".Ċ": 265,
      ",Ġ": 266,
      "ou": 267,
      "in": 268,
      "er": 269,
      "an": 270,
      "yĠ": 271,
      "Ġth": 272,
      "or": 273,
      "en": 274,
      "ar": 275,
      "oĠ": 276,
      "âĢ": 277,
      "on": 278,
      "ll": 279,
      "ha": 280,
      "es": 281,
      ",Ċ": 282,
      ".ĊĊ": 283,
      "isĠ": 284,
      "of": 285,
      "andĠ": 286,
      "Ġs": 287,
      "you": 288,
      "ea": 289,
      "âĢĻ": 290,
      "Ġm": 291,
      "ing": 292,
      "ĠtheĠ": 293,
      "om": 294,
      "ow": 295,
      "Ġw": 296,
      ".Ġ": 297,
      "Ġa": 298,
      "toĠ": 299,
      "Th": 300,
      "Ġh": 301,
      "theĠ": 302,
      "ĊĊ": 303,
      "st": 304,
      "edĠ": 305,
      "veĠ": 306,
      "ch": 307,
      "li": 308,
      "ir": 309,
      "no": 310,
      "Ġb": 311,
      "ee": 312,
      "for": 313,
      "it": 314,
      "ith": 315,
      "atĠ": 316,
      "gh": 317,
      "is": 318,
      "erĠ": 319,
      "e,Ġ": 320,
      "at": 321,
      "IĠ": 322,
      "esĠ": 323,
      "im": 324,
      "llĠ": 325,
      "lo": 326,
      "ear": 327,
      "ur": 328,
      "An": 329,
      "us": 330,
      "ra": 331,
      "ofĠ": 332,
      "el": 333,
      "ol": 334,
      "S.Ċ": 335,
      "our": 336,
      "ĊĠĠĠĠ": 337,
      "un": 338,
      "notĠ": 339,
      "la": 340,
      "ri": 341,
      "ed": 342,
      "os": 343,
      "AndĠ": 344,
      "utĠ": 345,
      "re": 346,
      "hatĠ": 347,
      "âĢĻsĠ": 348,
      "al": 349,
      "il": 350,
      "itĠ": 351,
      "to": 352,
      "your": 353,
      "ingĠ": 354,
      "AN": 355,
      "TheĠ": 356,
      "eĊ": 357,
      "myĠ": 358,
      ",ĠandĠ": 359,
      "e,Ċ": 360,
      "eĠw": 361,
      "Wh": 362,
      "oul": 363,
      "em": 364,
      "keĠ": 365,
      "inĠ": 366,
      "thatĠ": 367,
      "enĠ": 368,
      "asĠ": 369,
      "US.Ċ": 370,
      "ereĠ": 371,
      "EN": 372,
      "ver": 373,
      "haveĠ": 374,
      "âĢĥ": 375,
      "ma": 376,
      "ti": 377,
      "youĠ": 378,
      "rea": 379,
      "sh": 380,
      "wh": 381,
      "di": 382,
      "stĠ": 383,
      "ro": 384,
      "et": 385,
      "?ĊĊ": 386,
      "etĠ": 387,
      "fa": 388,
      "aĠ": 389,
      "A.Ċ": 390,
      "ell": 391,
      "now": 392,
      "oo": 393,
      "with": 394,
      "e.ĊĊ": 395,
      "meĠ": 396,
      "ceĠ": 397,
      "ĠmyĠ": 398,
      "com": 399,
      "ent": 400,
      "ay": 401,
      "âĢĶ": 402,
      "ill": 403,
      "!Ġ": 404,
      "anĠ": 405,
      "thou": 406,
      "ther": 407,
      "ouldĠ": 408,
      "ck": 409,
      "ter": 410,
      "areĠ": 411,
      "igh": 412,
      "bl": 413,
      "ess": 414,
      "rom": 415,
      "ru": 416,
      "id": 417,
      "be": 418,
      "ta": 419,
      "Ġp": 420,
      "and": 421,
      "eĠs": 422,
      ";Ġ": 423,
      "if": 424,
      "up": 425,
      "Ġd": 426,
      "the": 427,
      "oun": 428,
      "OL": 429,
      "!ĊĊ": 430,
      "ca": 431,
      "s,Ġ": 432,
      "ER": 433,
      "onĠ": 434,
      "y,Ġ": 435,
      "AR": 436,
      "him": 437,
      "ĊâĢĥ": 438,
      "usĠ": 439,
      "ĠthatĠ": 440,
      "beĠ": 441,
      "ayĠ": 442,
      "heĠ": 443,
      "ThatĠ": 444,
      "con": 445,
      "ne": 446,
      "chĠ": 447,
      "thĠ": 448,
      "Ġthe": 449,
      "hisĠ": 450,
      "end": 451,
      "illĠ": 452,
      "sel": 453,
      "wor": 454,
      ".ĊĊC": 455,
      "IN": 456,
      ",ĊĠĠĠĠ": 457,
      "am": 458,
      "own": 459,
      "qu": 460,
      "orĠ": 461,
      "kĠ": 462,
      "od": 463,
      "IĠw": 464,
      "ic": 465,
      "ul": 466,
      "ToĠ": 467,
      "[_": 468,
      "lyĠ": 469,
      "ain": 470,
      "from": 471,
      "ĠS": 472,
      "LE": 473,
      "ofĠtheĠ": 474,
      "t,Ġ": 475,
      "essĠ": 476,
      "yourĠ": 477,
      "sp": 478,
      "ec": 479,
      "ourĠ": 480,
      "inĠtheĠ": 481,
      "ButĠ": 482,
      "ĠhisĠ": 483,
      "US": 484,
      "know": 485,
      "e.Ġ": 486,
      "noĠ": 487,
      "estĠ": 488,
      "ong": 489,
      ".ĊĠĠĠĠ": 490,
      "lov": 491,
      "._": 492,
      "pl": 493,
      ";Ċ": 494,
      "butĠ": 495,
      "est": 496,
      "OR": 497,
      "terĠ": 498,
      "her": 499,
      "ON": 500,
      "oneĠ": 501,
      "ough": 502,
      "RA": 503,
      "all": 504,
      "ES": 505,
      "IĠs": 506,
      "ag": 507,
      "oodĠ": 508,
      "ĠO": 509,
      "um": 510,
      "ut": 511,
      ",Ġs": 512,
      "IĠa": 513,
      "as": 514,
      "ineĠ": 515,
      "ev": 516,
      "fĠ": 517,
      "do": 518,
      "ind": 519,
      "ĠthisĠ": 520,
      "ey": 521,
      "seĠ": 522,
      "ion": 523,
      "In": 524,
      "doĠ": 525,
      "mor": 526,
      "pr": 527,
      "eep": 528,
      ",ĊAndĠ": 529,
      "sĊ": 530,
      "ANT": 531,
      "ouĠ": 532,
      "loveĠ": 533,
      "ĠthyĠ": 534,
      "byĠ": 535,
      "forĠ": 536,
      "owĠ": 537,
      "IUS.Ċ": 538,
      "Ġwith": 539,
      "Ġhim": 540,
      "AL": 541,
      "._]": 542,
      "e.Ċ": 543,
      "entĠ": 544,
      "ord": 545,
      "RO": 546,
      "IĠam": 547,
      "ang": 548,
      "hear": 549,
      "hall": 550,
      "?Ġ": 551,
      "eâĢĻsĠ": 552,
      "pp": 553,
      "ĠaĠ": 554,
      "!ĊĠĠĠĠ": 555,
      "ex": 556,
      "toĠtheĠ": 557,
      "ostĠ": 558,
      "En": 559,
      "ĠOF": 560,
      "ĠĠĠ": 561,
      "thyĠ": 562,
      "ad": 563,
      "Ġwh": 564,
      "D.Ċ": 565,
      "._]ĊĊ": 566,
      "EL": 567,
      "ustĠ": 568,
      "thisĠ": 569,
      "ousĠ": 570,
      "Ġst": 571,
      "irĠ": 572,
      "gi": 573,
      "ST": 574,
      "PH": 575,
      "hallĠ": 576,
      "can": 577,
      "su": 578,
      "likeĠ": 579,
      "op": 580,
      "par": 581,
      "For": 582,
      "leĠ": 583,
      "sw": 584,
      "tru": 585,
      "oldĠ": 586,
      "per": 587,
      "MyĠ": 588,
      "tsĠ": 589,
      "outĠ": 590,
      "se": 591,
      "IA.Ċ": 592,
      "ce": 593,
      "Ca": 594,
      "tim": 595,
      "omeĠ": 596,
      "Ex": 597,
      "goodĠ": 598,
      "E.Ċ": 599,
      "II": 600,
      "self": 601,
      "eed": 602,
      "po": 603,
      "str": 604,
      "ĠandĠ": 605,
      "ish": 606,
      "man": 607,
      "oseĠ": 608,
      "lea": 609,
      "ĠbeĠ": 610,
      "IĠhaveĠ": 611,
      "?Ċ": 612,
      "aw": 613,
      "fo": 614,
      "soĠ": 615,
      "bleĠ": 616,
      "ever": 617,
      "le": 618,
      "whi": 619,
      "dea": 620,
      ":Ċ": 621,
      "WhatĠ": 622,
      "IR": 623,
      "yĊ": 624,
      "ight": 625,
      "other": 626,
      "der": 627,
      "AT": 628,
      "ac": 629,
      "Y.Ċ": 630,
      "fl": 631,
      "Ġsh": 632,
      "IAN": 633,
      "withĠ": 634,
      "No": 635,
      "âĢĻt": 636,
      "âĢĻdĠ": 637,
      "EĠ": 638,
      "therĠ": 639,
      "ster": 640,
      "thouĠ": 641,
      "EnterĠ": 642,
      "With": 643,
      "gr": 644,
      "didĠ": 645,
      "[_Ex": 646,
      "IC": 647,
      "old": 648,
      "ĠmeĠ": 649,
      "ightĠ": 650,
      "e,ĠandĠ": 651,
      "ureĠ": 652,
      "upon": 653,
      "de": 654,
      "s.ĊĊ": 655,
      "es,Ġ": 656,
      "AsĠ": 657,
      "ton": 658,
      "HeĠ": 659,
      "tr": 660,
      "ink": 661,
      "lif": 662,
      "ir,Ġ": 663,
      "TH": 664,
      "grea": 665,
      "s,Ċ": 666,
      "tt": 667,
      "!Ċ": 668,
      "go": 669,
      "ven": 670,
      "IâĢĻ": 671,
      "AĠ": 672,
      "foreĠ": 673,
      "des": 674,
      "ard": 675,
      "ĠtoĠ": 676,
      "indĠ": 677,
      "hadĠ": 678,
      "ĠheĠ": 679,
      "theyĠ": 680,
      "tĊ": 681,
      "âĢľ": 682,
      "âĢĿ": 683,
      "so": 684,
      "endĠ": 685,
      "ab": 686,
      "ew": 687,
      "me": 688,
      "cr": 689,
      "s.Ġ": 690,
      "them": 691,
      "enc": 692,
      "vi": 693,
      "sĠandĠ": 694,
      "ĠasĠ": 695,
      "vesĠ": 696,
      "Ġher": 697,
      "Ġbe": 698,
      "pa": 699,
      "ugh": 700,
      "eas": 701,
      "fir": 702,
      "ER.Ċ": 703,
      "FIR": 704,
      "idĠ": 705,
      "FIRST": 706,
      "ThisĠ": 707,
      "PAT": 708,
      "esar": 709,
      "dis": 710,
      "Ġthem": 711,
      "Caesar": 712,
      "orn": 713,
      "urn": 714,
      "mad": 715,
      "PATR": 716,
      "eseĠ": 717,
      "Ġall": 718,
      "LEO": 719,
      "ANTON": 720,
      "thing": 721,
      "arr": 722,
      "PATRA.Ċ": 723,
      "ph": 724,
      "loo": 725,
      "ROS": 726,
      "pro": 727,
      "sa": 728,
      "ofĠm": 729,
      "ALIN": 730,
      "ROSALIN": 731,
      "+----": 732,
      "Ha": 733,
      "ful": 734,
      "gra": 735,
      "tw": 736,
      "whatĠ": 737,
      "antĠ": 738,
      ",ĊWh": 739,
      "ligh": 740,
      "na": 741,
      "weĠ": 742,
      "eetĠ": 743,
      "fri": 744,
      "Anton": 745,
      "pla": 746,
      "d,Ġ": 747,
      "letĠ": 748,
      "arm": 749,
      "fi": 750,
      "ĠL": 751,
      "ous": 752,
      "tion": 753,
      "OU": 754,
      "Ġma": 755,
      "though": 756,
      "Com": 757,
      "You": 758,
      "YouĠ": 759,
      "sc": 760,
      "ere": 761,
      "hat": 762,
      "mo": 763,
      "wasĠ": 764,
      "si": 765,
      "ĠthâĢĻ": 766,
      "pra": 767,
      "LetĠ": 768,
      "Of": 769,
      "uch": 770,
      "eyĠ": 771,
      "br": 772,
      "hea": 773,
      "eak": 774,
      "eĠwith": 775,
      "ay,Ġ": 776,
      "ĠOFĠ": 777,
      "Or": 778,
      "alĠ": 779,
      "ItĠ": 780,
      "lord": 781,
      "ateĠ": 782,
      "comeĠ": 783,
      "Ġthee": 784,
      "ed,Ġ": 785,
      "moreĠ": 786,
      "makeĠ": 787,
      "erv": 788,
      "ud": 789,
      "y.ĊĊ": 790,
      "youĠs": 791,
      "e,ĊĠĠĠĠ": 792,
      "omĠ": 793,
      "not": 794,
      "ĠbutĠ": 795,
      "sĠofĠ": 796,
      "ower": 797,
      "Mar": 798,
      "oundĠ": 799,
      "enceĠ": 800,
      "AND": 801,
      "giveĠ": 802,
      "ifĠ": 803,
      "MEN": 804,
      "edĊ": 805,
      "earĠ": 806,
      "tedĠ": 807,
      "takeĠ": 808,
      "ellĠ": 809,
      "yetĠ": 810,
      "IANA.Ċ": 811,
      "ep": 812,
      "eun": 813,
      "mostĠ": 814,
      "anc": 815,
      "Ġsp": 816,
      "gain": 817,
      "tun": 818,
      "anyĠ": 819,
      "off": 820,
      "new": 821,
      "CH": 822,
      "IĠm": 823,
      "theeĠ": 824,
      "ound": 825,
      "bo": 826,
      "ip": 827,
      "eal": 828,
      "MI": 829,
      "ĠwhatĠ": 830,
      "call": 831,
      "IĠamĠ": 832,
      "dr": 833,
      "well": 834,
      ",ĠtheĠ": 835,
      "artĠ": 836,
      "allĠ": 837,
      "On": 838,
      "geĠ": 839,
      "tra": 840,
      "isĠtheĠ": 841,
      "greatĠ": 842,
      "CUS": 843,
      "ff": 844,
      "king": 845,
      "then": 846,
      "veryĠ": 847,
      "Be": 848,
      "YRA": 849,
      "pos": 850,
      "hath": 851,
      "ĠweĠ": 852,
      "ĠatĠ": 853,
      "Ġhear": 854,
      "ĠSYRA": 855,
      "gu": 856,
      "herĠ": 857,
      "âĢĻstĠ": 858,
      "LAND": 859,
      "SoĠ": 860,
      "e?ĊĊ": 861,
      "see": 862,
      ".ĊĊ[_Ex": 863,
      "LES.Ċ": 864,
      "CUSE.Ċ": 865,
      "bea": 866,
      "PAR": 867,
      "cen": 868,
      "ark": 869,
      "car": 870,
      "coun": 871,
      "kis": 872,
      "ĠofĠ": 873,
      "ati": 874,
      "shouldĠ": 875,
      "IPH": 876,
      "O.Ċ": 877,
      "ian": 878,
      "you,Ġ": 879,
      "OLUS": 880,
      "worl": 881,
      "ANTIPH": 882,
      "co": 883,
      "friend": 884,
      "ber": 885,
      "cl": 886,
      "son": 887,
      "y,Ċ": 888,
      "thee": 889,
      ".ĊĊS": 890,
      "itsĠ": 891,
      ";ĠandĠ": 892,
      "If": 893,
      "hon": 894,
      "Ġin": 895,
      "tooĠ": 896,
      "PAROL": 897,
      "CEN": 898,
      "ofĠs": 899,
      "EPH": 900,
      "useĠ": 901,
      "DRO": 902,
      "MIO": 903,
      "DROMIO": 904,
      "ick": 905,
      "onĠtheĠ": 906,
      "willĠ": 907,
      "Ġwor": 908,
      "e,ĊAndĠ": 909,
      "comm": 910,
      "ByĠ": 911,
      "WeĠ": 912,
      "ich": 913,
      "vo": 914,
      "esĊ": 915,
      "Rom": 916,
      "ve": 917,
      "Ġthan": 918,
      "us,Ġ": 919,
      "ĠtheyĠ": 920,
      "IĠwillĠ": 921,
      "rough": 922,
      "tri": 923,
      "ĠĠĠĠĠ": 924,
      "-----": 925,
      "ation": 926,
      "INIUS.Ċ": 927,
      "IâĢĻllĠ": 928,
      "ĠOFĠEPH": 929,
      "IfĠ": 930,
      "s,ĠandĠ": 931,
      "ant": 932,
      "oreĠ": 933,
      "TheyĠ": 934,
      "ownĠ": 935,
      "which": 936,
      "IsĠ": 937,
      "|Ġ": 938,
      "ofĠmyĠ": 939,
      "ESUS.Ċ": 940,
      "OĠ": 941,
      "youĠw": 942,
      ".ĠA": 943,
      "ĠbyĠ": 944,
      "sheĠ": 945,
      "af": 946,
      "bet": 947,
      "nessĠ": 948,
      ",ĊĠĠ": 949,
      "himĠ": 950,
      "fromĠ": 951,
      "brea": 952,
      "gn": 953,
      "ho": 954,
      "ness": 955,
      "res": 956,
      "iseĠ": 957,
      "will": 958,
      "th,Ġ": 959,
      "Ġman": 960,
      "ing,Ġ": 961,
      "ĠtheeĠ": 962,
      "Go": 963,
      "HisĠ": 964,
      "aĠs": 965,
      "eeĠ": 966,
      "oâĢĻ": 967,
      "orr": 968,
      "ret": 969,
      "eĠwh": 970,
      "ereĠisĠ": 971,
      ".ĊĊCLEO": 972,
      "whichĠ": 973,
      "ceneĠ": 974,
      "verĠ": 975,
      "God": 976,
      "god": 977,
      "jo": 978,
      "iteĠ": 979,
      "ityĠ": 980,
      "cur": 981,
      "lor": 982,
      "wouldĠ": 983,
      ".ĠTheĠ": 984,
      "elyĠ": 985,
      "M.Ċ": 986,
      "day": 987,
      "een": 988,
      "mer": 989,
      "ĠtheirĠ": 990,
      "'sĠ": 991,
      "canĠ": 992,
      "gent": 993,
      "cannotĠ": 994,
      "DI": 995,
      "HÃ": 996,
      "NHÃ": 997,
      "Ros": 998,
      "TAN": 999,
      "dĊ": 1000,
      "tyĠ": 1001,
      "wereĠ": 1002,
      "ĦUS": 1003,
      "ORLAND": 1004,
      "NHÃĦUS": 1005,
      "goĠ": 1006,
      "ring": 1007,
      "âĢĻT": 1008,
      "Ġtheir": 1009,
      "again": 1010,
      "TRA": 1011,
      "W.Ċ": 1012,
      "cha": 1013,
      "ichĠ": 1014,
      "mustĠ": 1015,
      "tell": 1016,
      "ĠĠĠĠĠĠ": 1017,
      "SCEN": 1018,
      "cour": 1019,
      "ge": 1020,
      "pe": 1021,
      "pur": 1022,
      "s.Ċ": 1023,
      "shall": 1024,
      "ThyĠ": 1025,
      "MENEN": 1026,
      "ba": 1027,
      ",ĠmyĠ": 1028,
      ".ĊĊB": 1029,
      "lack": 1030,
      "mayĠ": 1031,
      "ga": 1032,
      "land": 1033,
      "lessĠ": 1034,
      "sha": 1035,
      ".ĊĊA": 1036,
      "under": 1037,
      "ORD.Ċ": 1038,
      "ĠLORD.Ċ": 1039,
      "BAR": 1040,
      "ust": 1041,
      "sĠtheĠ": 1042,
      "inĠmyĠ": 1043,
      "tain": 1044,
      "fool": 1045,
      "Ch": 1046,
      "ForĠ": 1047,
      "HEL": 1048,
      "OBAR": 1049,
      "long": 1050,
      "pas": 1051,
      "sĠtoĠ": 1052,
      ",Ġwh": 1053,
      "Ġthou": 1054,
      "Ġhea": 1055,
      "liv": 1056,
      "IĠknow": 1057,
      "ENOBAR": 1058,
      "ĠwithĠ": 1059,
      "ENOBARB": 1060,
      "den": 1061,
      "eâĢĻ": 1062,
      "uchĠ": 1063,
      "eng": 1064,
      "ardĠ": 1065,
      "litt": 1066,
      "eet": 1067,
      "SCENEĠ": 1068,
      "Ma": 1069,
      "leep": 1070,
      "y.Ġ": 1071,
      "selfĠ": 1072,
      "everyĠ": 1073,
      "ĊTheĠ": 1074,
      "way": 1075,
      "rep": 1076,
      ",Ġsir": 1077,
      "NotĠ": 1078,
      "Come,Ġ": 1079,
      "HELEN": 1080,
      "EC": 1081,
      "than": 1082,
      "LA": 1083,
      "OM": 1084,
      "ci": 1085,
      "vir": 1086,
      "eĠandĠ": 1087,
      "itĠisĠ": 1088,
      "ood": 1089,
      "ELIA.Ċ": 1090,
      ";ĊĠĠĠĠ": 1091,
      "couldĠ": 1092,
      "fu": 1093,
      "ĊToĠ": 1094,
      "anceĠ": 1095,
      "ERTRA": 1096,
      ",ĊâĢĥ": 1097,
      "ither": 1098,
      "eyesĠ": 1099,
      "death": 1100,
      "IOL": 1101,
      "Un": 1102,
      "bear": 1103,
      "kesĠ": 1104,
      "ĠherĠ": 1105,
      "too": 1106,
      "OND": 1107,
      "Ar": 1108,
      "Our": 1109,
      "du": 1110,
      ",ĠbutĠ": 1111,
      "?ĊĊC": 1112,
      "ING": 1113,
      "ORIOL": 1114,
      "foll": 1115,
      "ECOND": 1116,
      "ORIOLAN": 1117,
      "don": 1118,
      "wif": 1119,
      "out": 1120,
      "ofĠa": 1121,
      "atter": 1122,
      "lam": 1123,
      "eĊâĢĥ": 1124,
      "ESS.Ċ": 1125,
      "far": 1126,
      "mĠ": 1127,
      "eel": 1128,
      "rem": 1129,
      "FE": 1130,
      "IV": 1131,
      "bro": 1132,
      "fear": 1133,
      "ĠthouĠ": 1134,
      "ĠsoĠ": 1135,
      "righ": 1136,
      "âĢĻtisĠ": 1137,
      "AES": 1138,
      "SS": 1139,
      "iveĠ": 1140,
      "tal": 1141,
      "ersĠ": 1142,
      "hasĠ": 1143,
      "toĠbeĠ": 1144,
      "their": 1145,
      "never": 1146,
      "AESAR": 1147,
      "es.ĊĊ": 1148,
      "toĠs": 1149,
      "IĠdoĠ": 1150,
      "cont": 1151,
      "IĠwill": 1152,
      "LAFE": 1153,
      ".]": 1154,
      ".ĠĠĠĠ": 1155,
      "KING": 1156,
      "mineĠ": 1157,
      "nat": 1158,
      "pre": 1159,
      "theĠs": 1160,
      "chil": 1161,
      "InĠ": 1162,
      "heartĠ": 1163,
      "THEĠ": 1164,
      "twoĠ": 1165,
      "LAFEW.Ċ": 1166,
      "Lo": 1167,
      "Sh": 1168,
      "iv": 1169,
      "opl": 1170,
      "wom": 1171,
      "ofĠth": 1172,
      "raw": 1173,
      "WhyĠ": 1174,
      "fair": 1175,
      "e.ĊĊC": 1176,
      "ef": 1177,
      ",ĊThatĠ": 1178,
      "los": 1179,
      "WhoĠ": 1180,
      ",Ġsir,Ġ": 1181,
      "GodĠ": 1182,
      "AESAR.Ċ": 1183,
      "HowĠ": 1184,
      "ub": 1185,
      ".ĠTh": 1186,
      "eĠwasĠ": 1187,
      "till": 1188,
      "timeĠ": 1189,
      "look": 1190,
      "eunt": 1191,
      "DR": 1192,
      "IĠth": 1193,
      "NoĠ": 1194,
      "answ": 1195,
      "youĠm": 1196,
      "owsĠ": 1197,
      "WhenĠ": 1198,
      "pres": 1199,
      "light": 1200,
      "eĊĠĠĠĠ": 1201,
      "gon": 1202,
      "my": 1203,
      "mar": 1204,
      "wr": 1205,
      "ĠtheĠs": 1206,
      "ush": 1207,
      "III": 1208,
      "âĢĻTisĠ": 1209,
      ":Ġ": 1210,
      "Al": 1211,
      "Nay,Ġ": 1212,
      "O,Ġ": 1213,
      "aĠm": 1214,
      "fr": 1215,
      "me,Ġ": 1216,
      "inkĠ": 1217,
      "happ": 1218,
      "edĠtoĠ": 1219,
      "comp": 1220,
      "andĊ": 1221,
      "RASS": 1222,
      "ALIC": 1223,
      ".âĢĶ": 1224,
      "IL": 1225,
      "bra": 1226,
      "venĠ": 1227,
      "that": 1228,
      "thingĠ": 1229,
      "inceĠ": 1230,
      "ori": 1231,
      "en,Ġ": 1232,
      "hal": 1233,
      "ship": 1234,
      "pleas": 1235,
      "OUN": 1236,
      "?ĊĠĠĠĠ": 1237,
      "Now": 1238,
      "OfĠ": 1239,
      "Your": 1240,
      "dsĠ": 1241,
      "eakĠ": 1242,
      "WhereĠ": 1243,
      "Well": 1244,
      "y.Ċ": 1245,
      "ThouĠ": 1246,
      "iti": 1247,
      "fac": 1248,
      "ongu": 1249,
      "How": 1250,
      "mi": 1251,
      "otherĠ": 1252,
      "pri": 1253,
      "shallĠ": 1254,
      "hathĠ": 1255,
      "ingsĠ": 1256,
      "seeĠ": 1257,
      "kiss": 1258,
      "OUNT": 1259,
      "IZ": 1260,
      "gin": 1261,
      "ĊThatĠ": 1262,
      "char": 1263,
      "fortun": 1264,
      "ideĠ": 1265,
      "ectĠ": 1266,
      "Du": 1267,
      "To": 1268,
      "WN": 1269,
      "min": 1270,
      "ng": 1271,
      "tongu": 1272,
      "y,ĠandĠ": 1273,
      "young": 1274,
      "edĠwith": 1275,
      "lip": 1276,
      "Ġbo": 1277,
      "KING.Ċ": 1278,
      "DU": 1279,
      "Li": 1280,
      "YetĠ": 1281,
      "o,Ġ": 1282,
      "tu": 1283,
      "ĠC": 1284,
      "father": 1285,
      "part": 1286,
      "GoodĠ": 1287,
      "OWN": 1288,
      "sur": 1289,
      "ĠisĠ": 1290,
      "ouch": 1291,
      "ofĠhisĠ": 1292,
      ".ĠS": 1293,
      "Why,Ġ": 1294,
      "fall": 1295,
      "OLDI": 1296,
      "neverĠ": 1297,
      "DUK": 1298,
      "_.]": 1299,
      "app": 1300,
      "over": 1301,
      "inĠs": 1302,
      "att": 1303,
      "lood": 1304,
      "leaveĠ": 1305,
      "ID": 1306,
      "IT": 1307,
      "TUS.Ċ": 1308,
      "dstĠ": 1309,
      "nam": 1310,
      "ros": 1311,
      ",ĊS": 1312,
      "When": 1313,
      "evil": 1314,
      "ĠthâĢĻĠ": 1315,
      ".âĢĿ": 1316,
      "From": 1317,
      "findĠ": 1318,
      "gold": 1319,
      "hand": 1320,
      "keep": 1321,
      "sayĠ": 1322,
      "ĊAndĠ": 1323,
      ".ĊĠĠ": 1324,
      "inc": 1325,
      "ingĠs": 1326,
      "edĠtheĠ": 1327,
      "lad": 1328,
      "gainstĠ": 1329,
      "let": 1330,
      "pt": 1331,
      "|Ċ": 1332,
      ",ĊĠĠĠ": 1333,
      "atch": 1334,
      "madam": 1335,
      "BeĠ": 1336,
      "RU": 1337,
      "ign": 1338,
      "mil": 1339,
      "ob": 1340,
      "ĠtheseĠ": 1341,
      "ort": 1342,
      "tic": 1343,
      "there": 1344,
      "cons": 1345,
      "utyĠ": 1346,
      "Rosal": 1347,
      "swor": 1348,
      "yourĠs": 1349,
      "nowĠ": 1350,
      "comesĠ": 1351,
      "lifeĠ": 1352,
      "peopl": 1353,
      "littleĠ": 1354,
      "AS.Ċ": 1355,
      "dear": 1356,
      "fin": 1357,
      "mp": 1358,
      "nĠ": 1359,
      ",Ġh": 1360,
      "hastĠ": 1361,
      "form": 1362,
      "oldi": 1363,
      "laugh": 1364,
      "read": 1365,
      "theirĠ": 1366,
      "oughtĠ": 1367,
      "WithĠ": 1368,
      "FIRSTĠS": 1369,
      "RUTUS.Ċ": 1370,
      "SceneĠ": 1371,
      "YourĠ": 1372,
      "weetĠ": 1373,
      "hav": 1374,
      "âĢĻĠ": 1375,
      "Ġme": 1376,
      "it.ĊĊ": 1377,
      "ed,Ċ": 1378,
      "angeĠ": 1379,
      "heart": 1380,
      "STON": 1381,
      "Marti": 1382,
      "TOU": 1383,
      "bar": 1384,
      "gri": 1385,
      "hel": 1386,
      "soul": 1387,
      "ĊA": 1388,
      "yĠandĠ": 1389,
      "toĠmyĠ": 1390,
      "ileĠ": 1391,
      "spir": 1392,
      "IAN.Ċ": 1393,
      "IâĢĻll": 1394,
      "CHSTON": 1395,
      "ES.Ċ": 1396,
      "som": 1397,
      "sir,Ġ": 1398,
      "ten": 1399,
      "wa": 1400,
      "ĠĠĠĠĠĠĠ": 1401,
      "âĢĻtĠ": 1402,
      "lic": 1403,
      "lac": 1404,
      "Ġdo": 1405,
      "!ĊĊC": 1406,
      "Ġthis": 1407,
      "edĠbyĠ": 1408,
      "Ġbea": 1409,
      "ream": 1410,
      "uponĠ": 1411,
      "ect": 1412,
      "desir": 1413,
      "madeĠ": 1414,
      "HaveĠ": 1415,
      "OLUSĠOF": 1416,
      "CT": 1417,
      "Her": 1418,
      "fell": 1419,
      "ment": 1420,
      "night": 1421,
      "someĠ": 1422,
      "es.Ġ": 1423,
      "ĠwasĠ": 1424,
      "Ġbrea": 1425,
      "esĠofĠ": 1426,
      "when": 1427,
      "everĠ": 1428,
      "sweetĠ": 1429,
      "firstĠ": 1430,
      "nor": 1431,
      "ĊTh": 1432,
      "ini": 1433,
      ",ĊTheĠ": 1434,
      "still": 1435,
      "not,Ġ": 1436,
      "ook": 1437,
      "cap": 1438,
      "speak": 1439,
      "trueĠ": 1440,
      "prayĠ": 1441,
      "Cle": 1442,
      "men": 1443,
      "manĠ": 1444,
      "inĠa": 1445,
      "nobleĠ": 1446,
      "whenĠ": 1447,
      "lightĠ": 1448,
      "worldĠ": 1449,
      "voic": 1450,
      "down": 1451,
      "e-": 1452,
      "gy": 1453,
      "yâĢĻsĠ": 1454,
      "sĠof": 1455,
      "sĠthatĠ": 1456,
      ",ĠthatĠ": 1457,
      "you.ĊĊ": 1458,
      "ĠtheĠb": 1459,
      "Thou": 1460,
      "eek": 1461,
      "it,Ġ": 1462,
      "atra": 1463,
      "ĊĠĠĠĠĠĠ": 1464,
      "ART": 1465,
      "ĠhimĠ": 1466,
      "opatra": 1467,
      "Egy": 1468,
      "cer": 1469,
      "e!Ġ": 1470,
      "gg": 1471,
      "kind": 1472,
      "ondĠ": 1473,
      "esĠandĠ": 1474,
      "love,Ġ": 1475,
      "IZEN": 1476,
      "ITIZEN": 1477,
      ";ĠbutĠ": 1478,
      "All": 1479,
      "LOWN": 1480,
      "eâĢĶ": 1481,
      "va": 1482,
      "thereĠ": 1483,
      "theseĠ": 1484,
      "sĠareĠ": 1485,
      "ann": 1486,
      "ThenĠ": 1487,
      "olyĠ": 1488,
      "yourĠh": 1489,
      "tionĠ": 1490,
      "partĠ": 1491,
      "OrĠ": 1492,
      "-----+": 1493,
      "!ĊâĢĥ": 1494,
      "Ay,Ġ": 1495,
      "\\!ĊâĢĥ": 1496,
      "aĠw": 1497,
      "aĠb": 1498,
      "akeĠ": 1499,
      "ly": 1500,
      "less": 1501,
      "sir": 1502,
      "say": 1503,
      "turn": 1504,
      "Ċ|Ġ": 1505,
      "int": 1506,
      "es,Ċ": 1507,
      "âĢĻd": 1508,
      "earth": 1509,
      "usb": 1510,
      "ageĠ": 1511,
      "answer": 1512,
      "oldier": 1513,
      "LOWN.Ċ": 1514,
      "DoĠ": 1515,
      "VEN": 1516,
      "hereĠ": 1517,
      "onlyĠ": 1518,
      ".ĠButĠ": 1519,
      "toĠb": 1520,
      "nothing": 1521,
      "forth": 1522,
      "ckĠ": 1523,
      "doth": 1524,
      "ĠmakeĠ": 1525,
      "oriol": 1526,
      "cor": 1527,
      "draw": 1528,
      "fur": 1529,
      "hour": 1530,
      "ken": 1531,
      "sk": 1532,
      "uc": 1533,
      "war": 1534,
      "Ġal": 1535,
      "Which": 1536,
      "âĢĶĊ": 1537,
      "ARM": 1538,
      "Ġstr": 1539,
      "|Ċ+----": 1540,
      "Coriol": 1541,
      "Par": 1542,
      "e!ĊĊ": 1543,
      "mb": 1544,
      "mon": 1545,
      "oll": 1546,
      "sĊâĢĥ": 1547,
      "ĠsheĠ": 1548,
      "ĠallĠ": 1549,
      "cho": 1550,
      "e,ĠtheĠ": 1551,
      "ola": 1552,
      "causeĠ": 1553,
      "even": 1554,
      "exc": 1555,
      "truth": 1556,
      "ewell": 1557,
      "ItĠisĠ": 1558,
      "pass": 1559,
      "_.]Ġ": 1560,
      "JA": 1561,
      "gre": 1562,
      "pĠ": 1563,
      "earn": 1564,
      "elĠ": 1565,
      "ed.ĊĊ": 1566,
      "selvesĠ": 1567,
      "OR.Ċ": 1568,
      "ESS": 1569,
      "adeĠ": 1570,
      "strong": 1571,
      "ationĠ": 1572,
      "natur": 1573,
      "QU": 1574,
      "WillĠ": 1575,
      "augh": 1576,
      "deĠ": 1577,
      "ist": 1578,
      "ly,Ġ": 1579,
      "ptĠ": 1580,
      "putĠ": 1581,
      "think": 1582,
      "inĠhisĠ": 1583,
      "ingĠm": 1584,
      "ĠaĠs": 1585,
      "reeĠ": 1586,
      "yourĠp": 1587,
      "eĠwill": 1588,
      "beforeĠ": 1589,
      "stress": 1590,
      "JAQU": 1591,
      "IĠb": 1592,
      "dec": 1593,
      "foo": 1594,
      "iâĢĻ": 1595,
      "power": 1596,
      "ser": 1597,
      "thanĠ": 1598,
      "inĠm": 1599,
      "intoĠ": 1600,
      "another": 1601,
      ",ĊToĠ": 1602,
      "Ġshall": 1603,
      ".ĠAĠ": 1604,
      "liveĠ": 1605,
      "us.ĊĊ": 1606,
      "toge": 1607,
      "master": 1608,
      "honour": 1609,
      "bod": 1610,
      "dou": 1611,
      "hum": 1612,
      "iceĠ": 1613,
      "much": 1614,
      "run": 1615,
      "tear": 1616,
      "|ĠĠĠĠ": 1617,
      "eath": 1618,
      "edĠandĠ": 1619,
      "ity": 1620,
      "rac": 1621,
      "lastĠ": 1622,
      "tillĠ": 1623,
      "eĠshall": 1624,
      "heĠisĠ": 1625,
      ",ĊĠĠĠĠĠ": 1626,
      "such": 1627,
      "away": 1628,
      "virtu": 1629,
      "Fr": 1630,
      "GoĠ": 1631,
      "GER.Ċ": 1632,
      "MESS": 1633,
      "clo": 1634,
      "norĠ": 1635,
      "thenĠ": 1636,
      ",Ġfor": 1637,
      "ortĠ": 1638,
      "Though": 1639,
      "Ġhon": 1640,
      "ENGER.Ċ": 1641,
      "eter": 1642,
      "conf": 1643,
      "dead": 1644,
      "No,Ġ": 1645,
      "orrow": 1646,
      "how": 1647,
      "nightĠ": 1648,
      "pain": 1649,
      "thr": 1650,
      "Ġthat": 1651,
      "ofĠw": 1652,
      "youth": 1653,
      "law": 1654,
      "div": 1655,
      "been": 1656,
      "IĠwasĠ": 1657,
      "ishĠ": 1658,
      "godsĠ": 1659,
      "AB": 1660,
      "Ah": 1661,
      "e;": 1662,
      "holdĠ": 1663,
      "kill": 1664,
      "ty": 1665,
      "oudĠ": 1666,
      "eem": 1667,
      "._ĊĊ": 1668,
      "poor": 1669,
      "crown": 1670,
      "IĠmustĠ": 1671,
      "Ad": 1672,
      "VOL": 1673,
      "dayĠ": 1674,
      "eenĠ": 1675,
      "e!ĊĠĠĠĠ": 1676,
      "ledĠ": 1677,
      "rest": 1678,
      "s,ĊĠĠĠĠ": 1679,
      "serv": 1680,
      "yself": 1681,
      "ĠthanĠ": 1682,
      "enough": 1683,
      "on,Ġ": 1684,
      "Ġme,Ġ": 1685,
      "ĠmoreĠ": 1686,
      "theĠw": 1687,
      "st,Ġ": 1688,
      "lie": 1689,
      "lish": 1690,
      "Ġbet": 1691,
      "isĊ": 1692,
      "ria": 1693,
      "ed.Ġ": 1694,
      "eĠwor": 1695,
      "lookĠ": 1696,
      "nameĠ": 1697,
      "euntĠ": 1698,
      "happyĠ": 1699,
      "I.Ġ": 1700,
      "born": 1701,
      "deed": 1702,
      "e;Ġ": 1703,
      "fal": 1704,
      "sĊĠĠĠĠ": 1705,
      "s!Ġ": 1706,
      "ys": 1707,
      "yet": 1708,
      "through": 1709,
      "eni": 1710,
      "ener": 1711,
      "onceĠ": 1712,
      "Ġwill": 1713,
      "toĠm": 1714,
      "Then": 1715,
      "nobl": 1716,
      "forĠmyĠ": 1717,
      "IĠprayĠ": 1718,
      "iltĠ": 1719,
      "yourĠb": 1720,
      "fulĠ": 1721,
      "world": 1722,
      "gentl": 1723,
      "brother": 1724,
      "Drom": 1725,
      "EY.Ċ": 1726,
      "UM": 1727,
      "What": 1728,
      "ach": 1729,
      "e;Ċ": 1730,
      "led": 1731,
      "ryĠ": 1732,
      "uck": 1733,
      "ens": 1734,
      "owerĠ": 1735,
      "Ġac": 1736,
      "imp": 1737,
      "myĠlord": 1738,
      "faceĠ": 1739,
      "âĢĶĊĊ": 1740,
      "tainĠ": 1741,
      "press": 1742,
      "Enter": 1743,
      "plac": 1744,
      "eĠwithĠ": 1745,
      "full": 1746,
      "OurĠ": 1747,
      "CTĠ": 1748,
      "Dromi": 1749,
      "..": 1750,
      "EĠS": 1751,
      "RI": 1752,
      "Ro": 1753,
      "deep": 1754,
      "good": 1755,
      "howĠ": 1756,
      "muchĠ": 1757,
      "ris": 1758,
      "ut,Ġ": 1759,
      "weep": 1760,
      "iness": 1761,
      ".ĊĊ1": 1762,
      "ĠwouldĠ": 1763,
      "reason": 1764,
      "fairĠ": 1765,
      "Ġpo": 1766,
      "evenĠ": 1767,
      "likeĠaĠ": 1768,
      "follow": 1769,
      "Well,Ġ": 1770,
      "VENUS.Ċ": 1771,
      "eedĠ": 1772,
      "kingĠ": 1773,
      "knew": 1774,
      "near": 1775,
      "touch": 1776,
      "ĊS": 1777,
      ",ĊButĠ": 1778,
      "ĠshallĠ": 1779,
      "ĠwereĠ": 1780,
      "Ġagain": 1781,
      "Ther": 1782,
      "standĠ": 1783,
      "stri": 1784,
      "lik": 1785,
      "itt": 1786,
      "ition": 1787,
      "eĠwillĠ": 1788,
      "vers": 1789,
      "show": 1790,
      "ĠSceneĠ": 1791,
      "sub": 1792,
      ":ĊĠĠ": 1793,
      "ughtĠ": 1794,
      "arryĠ": 1795,
      "return": 1796,
      "Alex": 1797,
      "Hel": 1798,
      "Lola": 1799,
      "Up": 1800,
      "derĠ": 1801,
      "ftĠ": 1802,
      "hom": 1803,
      "high": 1804,
      "hold": 1805,
      "kna": 1806,
      "sea": 1807,
      "ve,Ġ": 1808,
      "wayĠ": 1809,
      "eĠofĠ": 1810,
      "ouseĠ": 1811,
      "er,Ġ": 1812,
      "any": 1813,
      "ĠtheĊ": 1814,
      "isĠnotĠ": 1815,
      "ĠmostĠ": 1816,
      "Ġword": 1817,
      "theĠm": 1818,
      "star": 1819,
      "IĠloveĠ": 1820,
      "layĠ": 1821,
      "faul": 1822,
      "come,Ġ": 1823,
      "esseng": 1824,
      "ALL": 1825,
      "mean": 1826,
      "ffer": 1827,
      "rightĠ": 1828,
      "marri": 1829,
      "VOLUM": 1830,
      "VOLUMN": 1831,
      ";ĠtheĠ": 1832,
      "BERTRA": 1833,
      "Sp": 1834,
      "UC": 1835,
      "beĠs": 1836,
      "hÃ": 1837,
      "iousĠ": 1838,
      "tend": 1839,
      "wellĠ": 1840,
      "year": 1841,
      "¤us": 1842,
      "yĠofĠ": 1843,
      "Ġthen": 1844,
      "theĠb": 1845,
      "stand": 1846,
      "atĠtheĠ": 1847,
      "IĠhadĠ": 1848,
      "rain": 1849,
      "e,ĊĠĠ": 1850,
      "eĠweĠ": 1851,
      "cameĠ": 1852,
      "ecre": 1853,
      "loodĠ": 1854,
      "seem": 1855,
      "AreĠ": 1856,
      ":ĊĠĠĠĠ": 1857,
      "ACTĠ": 1858,
      "Coun": 1859,
      "HereĠ": 1860,
      "SECOND": 1861,
      "Tann": 1862,
      "cess": 1863,
      "dark": 1864,
      "fea": 1865,
      "iesĠ": 1866,
      "low": 1867,
      "noneĠ": 1868,
      "ĊOf": 1869,
      "ĠnotĠ": 1870,
      ".ĊTheĠ": 1871,
      "ofĊ": 1872,
      "Ġsa": 1873,
      "each": 1874,
      "sterĠ": 1875,
      "rew": 1876,
      "ember": 1877,
      "whereĠ": 1878,
      "and,Ġ": 1879,
      "usĠandĠ": 1880,
      "noĠmor": 1881,
      "plea": 1882,
      "doesĠ": 1883,
      "LikeĠ": 1884,
      "hÃ¤us": 1885,
      ";ĊâĢĥ": 1886,
      "Con": 1887,
      "ED": 1888,
      "SIC": 1889,
      "Tru": 1890,
      "aĊ": 1891,
      "a,Ġ": 1892,
      "hous": 1893,
      "ner": 1894,
      "sol": 1895,
      "sid": 1896,
      "tellĠ": 1897,
      "vis": 1898,
      "wear": 1899,
      "ank": 1900,
      "ĠthineĠ": 1901,
      "esh": 1902,
      ".ĊĊ[_": 1903,
      "itherĠ": 1904,
      "lover": 1905,
      "Anti": 1906,
      "rece": 1907,
      "thouĠs": 1908,
      "utter": 1909,
      "flower": 1910,
      "Ġheaven": 1911,
      "Far": 1912,
      "NorĠ": 1913,
      "Pom": 1914,
      "aĠh": 1915,
      "ableĠ": 1916,
      "cru": 1917,
      "doneĠ": 1918,
      "fla": 1919,
      "iel": 1920,
      "pit": 1921,
      "sun": 1922,
      "ĊM": 1923,
      "ĊĠĠ": 1924,
      "onder": 1925,
      "Ġab": 1926,
      "Ġhop": 1927,
      "lis": 1928,
      "liver": 1929,
      "is,Ġ": 1930,
      "emp": 1931,
      "reat": 1932,
      "faith": 1933,
      "word": 1934,
      "known": 1935,
      "grac": 1936,
      "OneĠ": 1937,
      "woman": 1938,
      "IĠthink": 1939,
      "LUC": 1940,
      "MART": 1941,
      "foundĠ": 1942,
      "getĠ": 1943,
      "hor": 1944,
      "mightĠ": 1945,
      "ringĠ": 1946,
      "vel": 1947,
      "ĠinĠ": 1948,
      "art": 1949,
      "hat,Ġ": 1950,
      "eac": 1951,
      "eatĠ": 1952,
      "Ġmo": 1953,
      "ĠwillĠ": 1954,
      "ison": 1955,
      "ourĠs": 1956,
      "ouldstĠ": 1957,
      "whoĠ": 1958,
      "andria": 1959,
      "!ĊĊTAN": 1960,
      "thĠandĠ": 1961,
      "quick": 1962,
      "manyĠ": 1963,
      "Orland": 1964,
      ".âĢĿĊĊ": 1965,
      "RoomĠ": 1966,
      "!âĢĶ": 1967,
      "ComeĠ": 1968,
      "DIANA.Ċ": 1969,
      "GiveĠ": 1970,
      "ast": 1971,
      "cla": 1972,
      "e?Ċ": 1973,
      "gat": 1974,
      "ionĠ": 1975,
      "ling": 1976,
      "tor": 1977,
      "ĊD": 1978,
      "thusĠ": 1979,
      "Ġthough": 1980,
      "ench": 1981,
      "ofĠthyĠ": 1982,
      "ĠmineĠ": 1983,
      "Ġapp": 1984,
      "ilyĠ": 1985,
      "rum": 1986,
      "dothĠ": 1987,
      "great": 1988,
      "letĠmeĠ": 1989,
      "head": 1990,
      "OMP": 1991,
      "fellow": 1992,
      "ADR": 1993,
      "Flor": 1994,
      "Pra": 1995,
      "abl": 1996,
      "eb": 1997,
      "equ": 1998,
      "fter": 1999,
      "hun": 2000,
      "ix": 2001,
      "ĊAsĠ": 2002,
      "inĊ": 2003,
      "oftĠ": 2004,
      "Ġwar": 2005,
      "There": 2006,
      "theĠd": 2007,
      "it._]ĊĊ": 2008,
      "eĊThatĠ": 2009,
      "eĊToĠ": 2010,
      "WhichĠ": 2011,
      "beingĠ": 2012,
      "amĠ": 2013,
      "queen": 2014,
      "pleĠ": 2015,
      "IĠseeĠ": 2016,
      "grow": 2017,
      "LetĠmeĠ": 2018,
      "countr": 2019,
      "cover": 2020,
      "oâĢĻer": 2021,
      "gentleĠ": 2022,
      "GRI": 2023,
      "NowĠ": 2024,
      "POMP": 2025,
      "Tim": 2026,
      "TakeĠ": 2027,
      "WasĠ": 2028,
      "glor": 2029,
      "husb": 2030,
      "mother": 2031,
      "win": 2032,
      "ĠyouĠ": 2033,
      ",ĠasĠ": 2034,
      "outh": 2035,
      "inst": 2036,
      "Ġthere": 2037,
      "Ġsuch": 2038,
      "loseĠ": 2039,
      "rag": 2040,
      "AN.Ċ": 2041,
      "Ġdes": 2042,
      "himself": 2043,
      "ques": 2044,
      "[_ToĠ": 2045,
      "themĠ": 2046,
      "epher": 2047,
      "Rome.Ġ": 2048,
      "Charm": 2049,
      "letter": 2050,
      "barb": 2051,
      "Eno": 2052,
      "Look": 2053,
      "Men": 2054,
      "MostĠ": 2055,
      "bun": 2056,
      "blood": 2057,
      "e?Ġ": 2058,
      "ke,Ġ": 2059,
      "lesĠ": 2060,
      "need": 2061,
      "row": 2062,
      "s;Ġ": 2063,
      "sureĠ": 2064,
      "sleep": 2065,
      "ting": 2066,
      "wo": 2067,
      "sĠin": 2068,
      "dĠofĠ": 2069,
      ".ĊâĢĥ": 2070,
      ".ĊButĠ": 2071,
      "ĠthoseĠ": 2072,
      "ence": 2073,
      "ofĠb": 2074,
      "Ġso": 2075,
      "Ġwr": 2076,
      "Ġwell": 2077,
      "notherĠ": 2078,
      "usic": 2079,
      "[_A": 2080,
      "IĠshall": 2081,
      "eyes": 2082,
      "flesh": 2083,
      "calledĠ": 2084,
      "court": 2085,
      "right": 2086,
      "haltĠ": 2087,
      "Enobarb": 2088,
      "Nor": 2089,
      "Pa": 2090,
      "Qu": 2091,
      "St": 2092,
      "SheĠ": 2093,
      "Vol": 2094,
      "\\!ĊĊ": 2095,
      "cra": 2096,
      "dom": 2097,
      "fe": 2098,
      "heĠw": 2099,
      "pen": 2100,
      "eĠtoĠ": 2101,
      "inessĠ": 2102,
      "erc": 2103,
      "erveĠ": 2104,
      "oft": 2105,
      "you.Ġ": 2106,
      "Ġmin": 2107,
      "ĠmayĠ": 2108,
      "Ġwom": 2109,
      "TheseĠ": 2110,
      "stĊ": 2111,
      "notĊ": 2112,
      "ater": 2113,
      "toĊ": 2114,
      "maid": 2115,
      ";ĊAndĠ": 2116,
      "heardĠ": 2117,
      "âĢĿĠ": 2118,
      "gaveĠ": 2119,
      "ciousĠ": 2120,
      "fullĠ": 2121,
      "content": 2122,
      "AtĠ": 2123,
      "Bea": 2124,
      "HerĠ": 2125,
      "IĊ": 2126,
      "Wor": 2127,
      "bur": 2128,
      "corn": 2129,
      "eli": 2130,
      "gla": 2131,
      "gener": 2132,
      "hop": 2133,
      "ies": 2134,
      "ili": 2135,
      "kn": 2136,
      "lin": 2137,
      "oa": 2138,
      "prom": 2139,
      "sĠwith": 2140,
      ",ĠorĠ": 2141,
      "Ġther": 2142,
      "andĠs": 2143,
      "ead": 2144,
      "ing.ĊĊ": 2145,
      "forĠa": 2146,
      "rid": 2147,
      "comfor": 2148,
      "aysĠ": 2149,
      "beenĠ": 2150,
      "OLIV": 2151,
      "spo": 2152,
      "lovesĠ": 2153,
      "IĠsh": 2154,
      "ass": 2155,
      "BeforeĠ": 2156,
      ".ĊĊSIC": 2157,
      "better": 2158,
      "back": 2159,
      "LoveĠ": 2160,
      "DukeĠ": 2161,
      "etern": 2162,
      "ecretĠ": 2163,
      "So": 2164,
      "Will": 2165,
      "ack": 2166,
      "bes": 2167,
      "cri": 2168,
      "jud": 2169,
      "num": 2170,
      "tom": 2171,
      "vill": 2172,
      "theĊ": 2173,
      "one,Ġ": 2174,
      "hair": 2175,
      "Ġsha": 2176,
      "elseĠ": 2177,
      "yourĠd": 2178,
      "eĊTheĠ": 2179,
      "e,ĊâĢĥ": 2180,
      "etâĢĻsĠ": 2181,
      "eĠsoĠ": 2182,
      "indeed": 2183,
      "eyeĠ": 2184,
      "anger": 2185,
      "friendĠ": 2186,
      "CHARM": 2187,
      "after": 2188,
      "bestĠ": 2189,
      "dem": 2190,
      "dream": 2191,
      "eth": 2192,
      "fra": 2193,
      "feel": 2194,
      "ia": 2195,
      "jest": 2196,
      "learn": 2197,
      "mis": 2198,
      "redĠ": 2199,
      "sm": 2200,
      "vedĠ": 2201,
      "ween": 2202,
      "this": 2203,
      "inĠthyĠ": 2204,
      ".ĊĊTOU": 2205,
      "ofĠaĠ": 2206,
      "youĊ": 2207,
      "ingĠa": 2208,
      "ThusĠ": 2209,
      "Ġhom": 2210,
      "ee,Ġ": 2211,
      "itĊ": 2212,
      "itch": 2213,
      "ed.Ċ": 2214,
      "WhoseĠ": 2215,
      "dist": 2216,
      "beg": 2217,
      "Ġper": 2218,
      "lovedĠ": 2219,
      "byĠtheĠ": 2220,
      "perf": 2221,
      "ence,Ġ": 2222,
      "Antony": 2223,
      "AntonyĠ": 2224,
      ".ĊĊADR": 2225,
      "Fa": 2226,
      "Sy": 2227,
      "bid": 2228,
      "cat": 2229,
      "col": 2230,
      "find": 2231,
      "kedĠ": 2232,
      "ĠG": 2233,
      "oud": 2234,
      "eryĠ": 2235,
      "anĠa": 2236,
      "enem": 2237,
      "aryĠ": 2238,
      ",ĊA": 2239,
      ",ĊAsĠ": 2240,
      "toĠhisĠ": 2241,
      "rather": 2242,
      "ild": 2243,
      "makesĠ": 2244,
      "reatĠ": 2245,
      "etsĠ": 2246,
      "eĠsp": 2247,
      ";Ġfor": 2248,
      "knowĠ": 2249,
      "doĠnotĠ": 2250,
      "leftĠ": 2251,
      "ĠthemĠ": 2252,
      "graceĠ": 2253,
      "bring": 2254,
      "Ġheart": 2255,
      "beautyĠ": 2256,
      "virgin": 2257,
      "doub": 2258,
      "AllĠ": 2259,
      "Ber": 2260,
      "But,Ġ": 2261,
      "Lif": 2262,
      "Pho": 2263,
      "Ra": 2264,
      "Ven": 2265,
      "WereĠ": 2266,
      "black": 2267,
      "hĠ": 2268,
      "lar": 2269,
      "mentĠ": 2270,
      "powerĠ": 2271,
      "setĠ": 2272,
      "s,ĊAndĠ": 2273,
      "tro": 2274,
      "val": 2275,
      ",ĠaĠ": 2276,
      "inf": 2277,
      "erĠthan": 2278,
      "ĠmustĠ": 2279,
      ".ĠHeĠ": 2280,
      "Ġhow": 2281,
      "che": 2282,
      "ireĠ": 2283,
      "Ġbro": 2284,
      "IĠdidĠ": 2285,
      "elcomeĠ": 2286,
      "last": 2287,
      "toĠthyĠ": 2288,
      "entsĠ": 2289,
      "ĠwhenĠ": 2290,
      "poorĠ": 2291,
      "MENAS.Ċ": 2292,
      "betterĠ": 2293,
      "breath": 2294,
      "retch": 2295,
      "Now,Ġ": 2296,
      "aughter": 2297,
      "bodyĠ": 2298,
      "Bertra": 2299,
      "Even": 2300,
      "Eros": 2301,
      "Is": 2302,
      "Lord": 2303,
      "WouldĠ": 2304,
      "What,Ġ": 2305,
      "bos": 2306,
      "din": 2307,
      "dam": 2308,
      "e.ĊĠĠĠĠ": 2309,
      "lat": 2310,
      "meĊ": 2311,
      "matter": 2312,
      "ning": 2313,
      "pal": 2314,
      "sill": 2315,
      "s;Ċ": 2316,
      "toldĠ": 2317,
      "van": 2318,
      "sĠhisĠ": 2319,
      "dĠandĠ": 2320,
      "err": 2321,
      "onĠmyĠ": 2322,
      "isĠaĠ": 2323,
      "ĠtheĠw": 2324,
      "toĠhim": 2325,
      "it.Ġ": 2326,
      "itself": 2327,
      "imag": 2328,
      "rema": 2329,
      "itĠwasĠ": 2330,
      "yourĠm": 2331,
      "eĠwereĠ": 2332,
      "Where": 2333,
      "ENI": 2334,
      "rop": 2335,
      "enter": 2336,
      "ight,Ġ": 2337,
      "caus": 2338,
      "neâĢĻ": 2339,
      ".ĊĊCOM": 2340,
      "Fortun": 2341,
      "II.Ġ": 2342,
      "palac": 2343,
      "pray": 2344,
      "heaven": 2345,
      "Ġspeak": 2346,
      "IĠmayĠ": 2347,
      "beaut": 2348,
      "longĠ": 2349,
      "MakeĠ": 2350,
      "Do": 2351,
      "Oc": 2352,
      "PID": 2353,
      "Sir,Ġ": 2354,
      "goldĠ": 2355,
      "menĠ": 2356,
      "rat": 2357,
      "trea": 2358,
      "trem": 2359,
      "ull": 2360,
      ".ĊA": 2361,
      "antsĠ": 2362,
      "orsĠ": 2363,
      "or,Ġ": 2364,
      "ofĠh": 2365,
      "stic": 2366,
      "edĠinĠ": 2367,
      "chang": 2368,
      "ity,Ġ": 2369,
      "lock": 2370,
      "oleĠ": 2371,
      "ourĠb": 2372,
      "ourish": 2373,
      "requ": 2374,
      "yourĠw": 2375,
      "asĠtheĠ": 2376,
      "now,Ġ": 2377,
      "camp": 2378,
      "thĠofĠ": 2379,
      "LEPID": 2380,
      "InĠtheĠ": 2381,
      "e.ĊĠĠ": 2382,
      "adam": 2383,
      "Ġstar": 2384,
      "awn": 2385,
      "phol": 2386,
      "Ġmaid": 2387,
      "hateĠ": 2388,
      "offic": 2389,
      "purpos": 2390,
      "child": 2391,
      "Duk": 2392,
      "Ġboth": 2393,
      "DUKEĠS": 2394,
      "passion": 2395,
      "pleaseĠ": 2396,
      "Pomp": 2397,
      "judg": 2398,
      "Bertram": 2399,
      "PP": 2400,
      "Till": 2401,
      "\\!Ċ": 2402,
      "ali": 2403,
      "bour": 2404,
      "dar": 2405,
      "dearĠ": 2406,
      "fight": 2407,
      "flam": 2408,
      "ister": 2409,
      "mir": 2410,
      "pityĠ": 2411,
      "s;": 2412,
      "sil": 2413,
      "sam": 2414,
      "tit": 2415,
      "vour": 2416,
      "Ã©": 2417,
      "thineĠ": 2418,
      "sĠmeĠ": 2419,
      "intĠ": 2420,
      "anch": 2421,
      "yĠtoĠ": 2422,
      "ĠthereĠ": 2423,
      "had": 2424,
      "est,Ġ": 2425,
      "ĠsomeĠ": 2426,
      "eachĠ": 2427,
      "oward": 2428,
      "The": 2429,
      "stor": 2430,
      "And,Ġ": 2431,
      "us,Ċ": 2432,
      "ourĠp": 2433,
      "alĠs": 2434,
      "itĠbeĠ": 2435,
      "eĠwell": 2436,
      "ENT": 2437,
      "tavi": 2438,
      "Ġdis": 2439,
      "conqu": 2440,
      "speakĠ": 2441,
      "._]Ġ": 2442,
      "ĠwhereĠ": 2443,
      "Ġwhich": 2444,
      "ĠwhichĠ": 2445,
      "phes": 2446,
      "common": 2447,
      "joy": 2448,
      "Rossill": 2449,
      "eâĢĻllĠ": 2450,
      "Egyp": 2451,
      "further": 2452,
      "lieveĠ": 2453,
      "ENIOR.Ċ": 2454,
      "E.ĊĠĠĠĠ": 2455,
      "HeâĢĻsĠ": 2456,
      "IĠhear": 2457,
      "IĠthan": 2458,
      "air": 2459,
      "bon": 2460,
      "gl": 2461,
      "gar": 2462,
      "lyĊ": 2463,
      "pati": 2464,
      "sing": 2465,
      "vic": 2466,
      "es.Ċ": 2467,
      ",ĊFor": 2468,
      "you?ĊĊ": 2469,
      "ThereĠ": 2470,
      "Ġhand": 2471,
      "Ġbear": 2472,
      "IĠcan": 2473,
      "notĠtoĠ": 2474,
      "edi": 2475,
      "where": 2476,
      "ookĠ": 2477,
      ".ĊĊCH": 2478,
      "quo": 2479,
      "spring": 2480,
      "outĠofĠ": 2481,
      "soon": 2482,
      "FIRSTĠC": 2483,
      "Comini": 2484,
      "eptĠ": 2485,
      "Ġworl": 2486,
      "natureĠ": 2487,
      "chargeĠ": 2488,
      "consul": 2489,
      "help": 2490,
      "falseĠ": 2491,
      "gentlem": 2492,
      "Count": 2493,
      "hÃ¤user": 2494,
      "Octavi": 2495,
      "?ĊâĢĥ": 2496,
      "AU": 2497,
      "Au": 2498,
      "BE": 2499,
      "Lor": 2500,
      "bu": 2501,
      "creat": 2502,
      "e!Ċ": 2503,
      "ger": 2504,
      "gir": 2505,
      "gro": 2506,
      "he": 2507,
      "ie": 2508,
      "keĊ": 2509,
      "sen": 2510,
      "sâĢĶ": 2511,
      "t.ĊĊ": 2512,
      "veĊ": 2513,
      "ve,Ċ": 2514,
      "zeĠ": 2515,
      "ĠP": 2516,
      "oura": 2517,
      "inter": 2518,
      "Ġthink": 2519,
      ".ĊĊTheĠ": 2520,
      "ĠmanyĠ": 2521,
      "ing.Ġ": 2522,
      "ingĠb": 2523,
      "Ġaway": 2524,
      "stat": 2525,
      "cheek": 2526,
      "liesĠ": 2527,
      "e,ĠbutĠ": 2528,
      "notĠbeĠ": 2529,
      "ilstĠ": 2530,
      "bless": 2531,
      "upĠ": 2532,
      ";ĊĠĠĠ": 2533,
      "Ġwhen": 2534,
      "ELL": 2535,
      "life,Ġ": 2536,
      "view": 2537,
      ",ĊWhich": 2538,
      "fidi": 2539,
      "thoughĠ": 2540,
      "prais": 2541,
      "Ġthee,Ġ": 2542,
      "thee,Ġ": 2543,
      "free": 2544,
      "Paroll": 2545,
      "GRIPP": 2546,
      "'dĠ": 2547,
      "DidĠ": 2548,
      "EvenĠ": 2549,
      "GRA": 2550,
      "I,Ġ": 2551,
      "IĊĊ": 2552,
      "MayĠ": 2553,
      "Pro": 2554,
      "SomeĠ": 2555,
      "ainĠ": 2556,
      "bidĠ": 2557,
      "burn": 2558,
      "dev": 2559,
      "eousĠ": 2560,
      "foul": 2561,
      "handĠ": 2562,
      "hid": 2563,
      "just": 2564,
      "ksĠ": 2565,
      "landĠ": 2566,
      "ningĠ": 2567,
      "poseĠ": 2568,
      "sin": 2569,
      "sla": 2570,
      "sonĠ": 2571,
      "tingĠ": 2572,
      "vyĠ": 2573,
      "vent": 2574,
      "ym": 2575,
      "yeĠ": 2576,
      "thes": 2577,
      "inĠaĠ": 2578,
      "er.ĊĊ": 2579,
      "Ġthous": 2580,
      "hap": 2581,
      "hast": 2582,
      "ofĠhim": 2583,
      ".ĠThisĠ": 2584,
      "Ġhour": 2585,
      "lim": 2586,
      "eech": 2587,
      "forc": 2588,
      "erĠandĠ": 2589,
      "IĠpr": 2590,
      "lostĠ": 2591,
      "usĊ": 2592,
      "elessĠ": 2593,
      "ilĠ": 2594,
      "readĠ": 2595,
      "roomĠ": 2596,
      "âĢĶĠ": 2597,
      "thouĠw": 2598,
      "Ġpla": 2599,
      "Ġpro": 2600,
      "worthyĠ": 2601,
      "IĠsaw": 2602,
      "Ġhim,Ġ": 2603,
      "ĠwhoĠ": 2604,
      "seen": 2605,
      "[_ExitĠ": 2606,
      "aboutĠ": 2607,
      "ence.ĊĊ": 2608,
      "AntonyĊ": 2609,
      "LANDGRA": 2610,
      "joyĠ": 2611,
      "ublic": 2612,
      "present": 2613,
      "myself": 2614,
      "writ": 2615,
      "DUKE.Ċ": 2616,
      "PrayĠ": 2617,
      "Volsc": 2618,
      "Syrac": 2619,
      "!âĢĿ": 2620,
      "MineĠ": 2621,
      "MAN.Ċ": 2622,
      "Tri": 2623,
      "aveĠ": 2624,
      "astĠ": 2625,
      "aĠman": 2626,
      "bla": 2627,
      "but": 2628,
      "dareĠ": 2629,
      "e:Ċ": 2630,
      "fing": 2631,
      "gif": 2632,
      "heĠs": 2633,
      "iedĠ": 2634,
      "might": 2635,
      "mark": 2636,
      "non": 2637,
      "s?ĊĊ": 2638,
      "s!ĊĊ": 2639,
      "vol": 2640,
      "isĠmyĠ": 2641,
      "ofĠall": 2642,
      "Ġad": 2643,
      "limb": 2644,
      "forĠm": 2645,
      "it.Ċ": 2646,
      "esĠareĠ": 2647,
      "masterĠ": 2648,
      "roy": 2649,
      "ĠdoĠ": 2650,
      "ERO": 2651,
      "selv": 2652,
      "IĠwereĠ": 2653,
      "knowsĠ": 2654,
      "ongĠ": 2655,
      "eyondĠ": 2656,
      "tran": 2657,
      "gotĠ": 2658,
      "plain": 2659,
      "placeĠ": 2660,
      "thought": 2661,
      "praiseĠ": 2662,
      "epid": 2663,
      "possi": 2664,
      "resp": 2665,
      "eâĢĻll": 2666,
      "myster": 2667,
      "finiteĠ": 2668,
      "gripp": 2669,
      "Lola!Ġ": 2670,
      "(_": 2671,
      "Ja": 2672,
      "Jo": 2673,
      "Messeng": 2674,
      "OTH": 2675,
      "Yes,Ġ": 2676,
      "ap": 2677,
      "au": 2678,
      "bir": 2679,
      "bit": 2680,
      "ceed": 2681,
      "mat": 2682,
      "me.ĊĊ": 2683,
      "mind": 2684,
      "ving": 2685,
      "ĊIn": 2686,
      "sĠhaveĠ": 2687,
      ",ĠyouĠ": 2688,
      "arĠ": 2689,
      "oneĠs": 2690,
      "eat": 2691,
      "âĢĻst": 2692,
      "ĠaĠm": 2693,
      "eechĠ": 2694,
      "lot": 2695,
      "ĊĠĠĠĠS": 2696,
      "rich": 2697,
      "ildĠ": 2698,
      "ingĠtoĠ": 2699,
      "eĠword": 2700,
      "whoseĠ": 2701,
      "rob": 2702,
      "fallĠ": 2703,
      "bey": 2704,
      "befor": 2705,
      "Ġde": 2706,
      "ĠdostĠ": 2707,
      "callĠ": 2708,
      "endsĠ": 2709,
      "wordĠ": 2710,
      "IĠsayĠ": 2711,
      "prof": 2712,
      "IĠamĠs": 2713,
      "streng": 2714,
      "deadĠ": 2715,
      "desp": 2716,
      "pair": 2717,
      "playĠ": 2718,
      "fiel": 2719,
      "then,Ġ": 2720,
      "seek": 2721,
      "countĠ": 2722,
      "chain": 2723,
      "shad": 2724,
      "prett": 2725,
      "childr": 2726,
      "thatĊ": 2727,
      "villain": 2728,
      "Aufidi": 2729,
      "EROS.Ċ": 2730,
      "Ephes": 2731,
      "Fl": 2732,
      "IĠhop": 2733,
      "Lepid": 2734,
      "Madam": 2735,
      "adĠ": 2736,
      "cul": 2737,
      "dri": 2738,
      "hither": 2739,
      "holyĠ": 2740,
      "houseĠ": 2741,
      "jur": 2742,
      "kenĠ": 2743,
      "kindĠ": 2744,
      "lingĠ": 2745,
      "ran": 2746,
      "ren": 2747,
      "sum": 2748,
      "s._]ĊĊ": 2749,
      "sinceĠ": 2750,
      "vil": 2751,
      "wis": 2752,
      "ward": 2753,
      "yiel": 2754,
      "ĠĠĠĠS": 2755,
      ".ĊIĠ": 2756,
      ",ĠtoĠ": 2757,
      ".ĊĊV": 2758,
      "ofĠthem": 2759,
      "ĠseeĠ": 2760,
      "you,Ċ": 2761,
      "ĠtheĠf": 2762,
      ".ĠAndĠ": 2763,
      "toĠaĠ": 2764,
      "ĠhowĠ": 2765,
      "changeĠ": 2766,
      "liber": 2767,
      "e,Ġsir": 2768,
      "IĠcanĠ": 2769,
      "rais": 2770,
      "unt": 2771,
      "ENAT": 2772,
      "youĠtoĠ": 2773,
      "die": 2774,
      "begin": 2775,
      "cas": 2776,
      "neck": 2777,
      "ection": 2778,
      "ument": 2779,
      ",ĠsoĠ": 2780,
      "ttend": 2781,
      "cros": 2782,
      "viceĠ": 2783,
      "arry,Ġ": 2784,
      "Hath": 2785,
      "kissĠ": 2786,
      "lordĠ": 2787,
      "IĠknowĠ": 2788,
      "took": 2789,
      "farĠ": 2790,
      "answerĠ": 2791,
      "IIIĊĊ": 2792,
      "compan": 2793,
      "pleasur": 2794,
      "Egypt": 2795,
      "Helen": 2796,
      "Pompey": 2797,
      "Agripp": 2798,
      "GE": 2799,
      "GEL": 2800,
      "GIL": 2801,
      "Hear": 2802,
      "Po": 2803,
      "Per": 2804,
      "SayĠ": 2805,
      "ak": 2806,
      "ban": 2807,
      "boundĠ": 2808,
      "cal": 2809,
      "ction": 2810,
      "devil": 2811,
      "horn": 2812,
      "ig": 2813,
      "music": 2814,
      "por": 2815,
      "reĠ": 2816,
      "sess": 2817,
      "y-": 2818,
      "ĊĠĠĠ": 2819,
      "ĠM": 2820,
      "thoseĠ": 2821,
      "sĠupon": 2822,
      "yĠisĠ": 2823,
      "ĠthenĠ": 2824,
      "orĠs": 2825,
      "Ġsw": 2826,
      "ĠsayĠ": 2827,
      "eadĠ": 2828,
      "Ġme.ĊĊ": 2829,
      ".ĠB": 2830,
      ".ĠIĠ": 2831,
      "ĠaĠp": 2832,
      "ĠhereĠ": 2833,
      "stillĠ": 2834,
      "edĠs": 2835,
      "edĠhim": 2836,
      "lieĠ": 2837,
      "no,Ġ": 2838,
      "Ġbl": 2839,
      "e,ĠmyĠ": 2840,
      "esĠtheĠ": 2841,
      "untoĠ": 2842,
      "alon": 2843,
      "ANGEL": 2844,
      "eĊAndĠ": 2845,
      "e,ĊButĠ": 2846,
      "eĠwhatĠ": 2847,
      "asĠaĠ": 2848,
      "youĠar": 2849,
      "dieĠ": 2850,
      "didstĠ": 2851,
      "aĠandĠ": 2852,
      "meĠtoĠ": 2853,
      "!ĠTheĠ": 2854,
      "tern": 2855,
      "being": 2856,
      "eĠso": 2857,
      "const": 2858,
      "ORIN": 2859,
      "proudĠ": 2860,
      "exp": 2861,
      "givesĠ": 2862,
      "PHO": 2863,
      "sweet": 2864,
      "perce": 2865,
      "IIĊĊ": 2866,
      "stressĠ": 2867,
      "IRGIL": 2868,
      "delight": 2869,
      "sameĠ": 2870,
      "letĠusĠ": 2871,
      "mock": 2872,
      "brow": 2873,
      "eĠwhoĠ": 2874,
      "curs": 2875,
      ",ĠwhoĠ": 2876,
      "littl": 2877,
      "SCENEĠV": 2878,
      "ILV": 2879,
      "IDIUS.Ċ": 2880,
      "foolish": 2881,
      "Ġhonour": 2882,
      "Upon": 2883,
      "hors": 2884,
      "colour": 2885,
      "&Ġ": 2886,
      "AE": 2887,
      "Bo": 2888,
      "EB": 2889,
      "Gr": 2890,
      "Hea": 2891,
      "Ira": 2892,
      "MoreĠ": 2893,
      "TillĠ": 2894,
      "aidĠ": 2895,
      "bel": 2896,
      "bell": 2897,
      "eign": 2898,
      "fet": 2899,
      "fill": 2900,
      "har": 2901,
      "ly.ĊĊ": 2902,
      "mur": 2903,
      "me.Ġ": 2904,
      "nedĠ": 2905,
      "otĠ": 2906,
      "rin": 2907,
      "thi": 2908,
      "sĠinĠ": 2909,
      "tĠofĠ": 2910,
      ",ĠIĠ": 2911,
      "ofĠher": 2912,
      "Ġmon": 2913,
      "Ġme.Ġ": 2914,
      "Ġas": 2915,
      "ThanĠ": 2916,
      "theĠc": 2917,
      "ĊĊC": 2918,
      "stayĠ": 2919,
      "edĠin": 2920,
      "livesĠ": 2921,
      "ity.ĊĊ": 2922,
      "esĠtoĠ": 2923,
      "embl": 2924,
      "shepher": 2925,
      "wher": 2926,
      "fail": 2927,
      "fatherĠ": 2928,
      "favour": 2929,
      "OLAB": 2930,
      "thĠisĠ": 2931,
      "kĠofĠ": 2932,
      "US,Ġ": 2933,
      "knowled": 2934,
      "Ġstor": 2935,
      "strang": 2936,
      "every": 2937,
      "def": 2938,
      "ence.Ġ": 2939,
      "viol": 2940,
      "thingsĠ": 2941,
      "prov": 2942,
      ",ĊWhen": 2943,
      "drink": 2944,
      "counter": 2945,
      "honest": 2946,
      "veil": 2947,
      "between": 2948,
      "orrowĠ": 2949,
      "childĠ": 2950,
      ".âĢĿĠ": 2951,
      "madam,Ġ": 2952,
      "peopleĠ": 2953,
      "certain": 2954,
      "drawn": 2955,
      "cruel": 2956,
      "gloryĠ": 2957,
      "ENTLE": 2958,
      "LordĠ": 2959,
      "?ĠS": 2960,
      "Dian": 2961,
      "DOLAB": 2962,
      "GreatĠ": 2963,
      "IA": 2964,
      "IĠbe": 2965,
      "RomeĠ": 2966,
      "Sil": 2967,
      "ShallĠ": 2968,
      "Tell": 2969,
      "UN": 2970,
      "a.ĊĊ": 2971,
      "berĠ": 2972,
      "bas": 2973,
      "cir": 2974,
      "dostĠ": 2975,
      "eur": 2976,
      "hang": 2977,
      "ipp": 2978,
      "justĠ": 2979,
      "lust": 2980,
      "restĠ": 2981,
      "tem": 2982,
      "tenĠ": 2983,
      "wound": 2984,
      "dĠtoĠ": 2985,
      ",Ġw": 2986,
      "ers,Ġ": 2987,
      "ofĠherĠ": 2988,
      "Ġsee": 2989,
      "âĢĻt,Ġ": 2990,
      "Ġmor": 2991,
      "Ġmen": 2992,
      "ĠtheĠc": 2993,
      "ĠaĠb": 2994,
      "toĠdo": 2995,
      "Than": 2996,
      "lion": 2997,
      "ityĊ": 2998,
      "earsĠ": 2999,
      "ure,Ġ": 3000,
      "AnĠ": 3001,
      "elanch": 3002,
      "ung": 3003,
      "rill": 3004,
      "reli": 3005,
      "itĠis": 3006,
      "toĠthee": 3007,
      "ementĠ": 3008,
      "thatĠIĠ": 3009,
      "et,Ġ": 3010,
      "etim": 3011,
      "ERIC": 3012,
      "ecst": 3013,
      ";ĊButĠ": 3014,
      "ought": 3015,
      "umph": 3016,
      "sĊThatĠ": 3017,
      "given": 3018,
      "suchĠ": 3019,
      "flatter": 3020,
      "HeĠisĠ": 3021,
      ",ĊWhoĠ": 3022,
      "sci": 3023,
      "sieur": 3024,
      "Ġspir": 3025,
      "ĠheartĠ": 3026,
      "command": 3027,
      "commonĠ": 3028,
      ".ĠAl": 3029,
      "ness,Ġ": 3030,
      "III.Ġ": 3031,
      "half": 3032,
      "itiz": 3033,
      "youngĠ": 3034,
      "lipsĠ": 3035,
      "Ġmean": 3036,
      "DromioĠ": 3037,
      "ALL.Ċ": 3038,
      "Palac": 3039,
      "promis": 3040,
      "imagin": 3041,
      "ELLA.Ċ": 3042,
      "IĠprith": 3043,
      "prettyĠ": 3044,
      "PHOEB": 3045,
      ",âĢĶ": 3046,
      "Ala": 3047,
      "Death": 3048,
      "FR": 3049,
      "Gent": 3050,
      "Kis": 3051,
      "Nat": 3052,
      "Peac": 3053,
      "Sir": 3054,
      "SinceĠ": 3055,
      "SweetĠ": 3056,
      "That": 3057,
      "WID": 3058,
      "_)": 3059,
      "bus": 3060,
      "bloodĠ": 3061,
      "cold": 3062,
      "drum": 3063,
      "eigh": 3064,
      "fer": 3065,
      "feed": 3066,
      "ge,Ġ": 3067,
      "hu": 3068,
      "hur": 3069,
      "iusĠ": 3070,
      "moun": 3071,
      "meĠwith": 3072,
      "pat": 3073,
      "rit": 3074,
      "s.ĊĊC": 3075,
      "song": 3076,
      "vingĠ": 3077,
      "wind": 3078,
      "wardĠ": 3079,
      "yingĠ": 3080,
      "y!Ġ": 3081,
      "ĊB": 3082,
      "sĠasĠ": 3083,
      ".ĊMyĠ": 3084,
      ",ĠifĠ": 3085,
      "ous,Ġ": 3086,
      "ouse": 3087,
      "in,Ġ": 3088,
      "ance": 3089,
      "Ġthes": 3090,
      "Ġthing": 3091,
      "arri": 3092,
      "âĢĺ": 3093,
      ".ĊĊJAQU": 3094,
      "Ġsoul": 3095,
      "youĠsh": 3096,
      "âĢĻem": 3097,
      "âĢĻdĊ": 3098,
      "ingĊ": 3099,
      "ome": 3100,
      ".ĠH": 3101,
      ".ĠM": 3102,
      ".ĠWhatĠ": 3103,
      "ston": 3104,
      "lit": 3105,
      "lost": 3106,
      "usion": 3107,
      "us._]ĊĊ": 3108,
      "ofĠourĠ": 3109,
      "labour": 3110,
      "rist": 3111,
      "edĊâĢĥ": 3112,
      "yourĊ": 3113,
      "ement": 3114,
      "diesĠ": 3115,
      "face": 3116,
      "anĠandĠ": 3117,
      "Ġpr": 3118,
      "ARD.Ċ": 3119,
      "him,Ġ": 3120,
      "thĠtoĠ": 3121,
      "workĠ": 3122,
      "quain": 3123,
      "LEĠ": 3124,
      "IĠsp": 3125,
      "IĠamĠa": 3126,
      "Forest": 3127,
      "person": 3128,
      "timesĠ": 3129,
      "awayĠ": 3130,
      "IRD": 3131,
      "THIRD": 3132,
      "so,Ġ": 3133,
      "HadĠ": 3134,
      ",ĊWhenĠ": 3135,
      "OUR": 3136,
      "sionĠ": 3137,
      "lord,Ġ": 3138,
      "Roman": 3139,
      "break": 3140,
      "chast": 3141,
      "waysĠ": 3142,
      "lamb": 3143,
      "ShouldĠ": 3144,
      "charg": 3145,
      "FromĠ": 3146,
      "keepĠ": 3147,
      "spiritĠ": 3148,
      "desireĠ": 3149,
      "ThoughĠ": 3150,
      "receiv": 3151,
      "Meneni": 3152,
      "Ġwoman": 3153,
      "conquer": 3154,
      "ORIN.Ċ": 3155,
      "ecstas": 3156,
      "WIDO": 3157,
      ".\"": 3158,
      "AD": 3159,
      "Cl": 3160,
      "Can": 3161,
      "LART": 3162,
      "Tit": 3163,
      "careĠ": 3164,
      "cle": 3165,
      "eful": 3166,
      "eff": 3167,
      "fru": 3168,
      "fic": 3169,
      "fearĠ": 3170,
      "get": 3171,
      "homeĠ": 3172,
      "me,Ċ": 3173,
      "meas": 3174,
      "mouth": 3175,
      "ock": 3176,
      "pet": 3177,
      "rh": 3178,
      "s!ĊĠĠĠĠ": 3179,
      "sideĠ": 3180,
      "tur": 3181,
      "uff": 3182,
      "what": 3183,
      "ĊOfĠ": 3184,
      "tĠtoĠ": 3185,
      "tĠtheĠ": 3186,
      ",Ġif": 3187,
      "inĠb": 3188,
      "erp": 3189,
      "enat": 3190,
      "arti": 3191,
      ".ĊĊALIC": 3192,
      ".ĊĊPOMP": 3193,
      "Ġsaw": 3194,
      "Ġsleep": 3195,
      "ĠmadeĠ": 3196,
      "edĠfrom": 3197,
      "forceĠ": 3198,
      "elf": 3199,
      "ĊĠĠĠĠIn": 3200,
      "notĠsoĠ": 3201,
      "ric": 3202,
      "ingĠin": 3203,
      "ingĠofĠ": 3204,
      "inĠourĠ": 3205,
      "tiesĠ": 3206,
      "roll": 3207,
      "ooth": 3208,
      "rut": 3209,
      "usĠofĠ": 3210,
      "conc": 3211,
      "qui": 3212,
      "uteĠ": 3213,
      "indeedĠ": 3214,
      "doĠyouĠ": 3215,
      "mortal": 3216,
      "eepĠ": 3217,
      "ANT.Ċ": 3218,
      "Ġstat": 3219,
      "ishedĠ": 3220,
      "leadĠ": 3221,
      "acc": 3222,
      "Ġshow": 3223,
      "EĠFR": 3224,
      "grim": 3225,
      "trustĠ": 3226,
      "deserv": 3227,
      "me!Ġ": 3228,
      "dispos": 3229,
      "proveĠ": 3230,
      "fig": 3231,
      "sister": 3232,
      "LetĠusĠ": 3233,
      "headĠ": 3234,
      "udre": 3235,
      "both": 3236,
      "guard": 3237,
      "passĠ": 3238,
      "Under": 3239,
      "ToĠtheĠ": 3240,
      "DUKEĠFR": 3241,
      "swordĠ": 3242,
      "green": 3243,
      "EDERIC": 3244,
      "claim": 3245,
      "girl": 3246,
      "Syracus": 3247,
      "WIDOW.Ċ": 3248,
      "EDERICK": 3249,
      ",âĢĿĠ": 3250,
      "Audre": 3251,
      "Etern": 3252,
      "FIC": 3253,
      "Ho": 3254,
      "IX": 3255,
      "Know": 3256,
      "Mer": 3257,
      "Mon": 3258,
      "M.ĊĠĠĠĠ": 3259,
      "Pr": 3260,
      "Shall": 3261,
      "Soldier": 3262,
      "catch": 3263,
      "denĠ": 3264,
      "dain": 3265,
      "e:": 3266,
      "ean": 3267,
      "ether": 3268,
      "fres": 3269,
      "hol": 3270,
      "heâĢĻsĠ": 3271,
      "jectĠ": 3272,
      "ly.Ġ": 3273,
      "mid": 3274,
      "mindĠ": 3275,
      "pi": 3276,
      "sup": 3277,
      "smil": 3278,
      "t.Ġ": 3279,
      "tleĠ": 3280,
      "vow": 3281,
      "wer": 3282,
      "wit": 3283,
      "water": 3284,
      "y?ĊĊ": 3285,
      "ĊMyĠ": 3286,
      "ĠW": 3287,
      "Ġ(_": 3288,
      "eĠisĠ": 3289,
      "thâĢĻĠ": 3290,
      "tĠandĠ": 3291,
      ".ĊYouĠ": 3292,
      "inĠh": 3293,
      "anti": 3294,
      "arg": 3295,
      "ond": 3296,
      "onour": 3297,
      "es!Ġ": 3298,
      "Ġsun": 3299,
      "youâĢĻ": 3300,
      "ingleĠ": 3301,
      "Ġam": 3302,
      "ĠheĠs": 3303,
      "st,Ċ": 3304,
      "stra": 3305,
      "stru": 3306,
      "edĠmyĠ": 3307,
      "cher": 3308,
      "fore,Ġ": 3309,
      "itor": 3310,
      "us.Ġ": 3311,
      "ratherĠ": 3312,
      "underĠ": 3313,
      "toĠthem": 3314,
      "e,ĊTheĠ": 3315,
      "Wher": 3316,
      "whyĠ": 3317,
      "differ": 3318,
      "roach": 3319,
      "withĠs": 3320,
      "rud": 3321,
      "idow": 3322,
      "taughtĠ": 3323,
      "s,ĠtheĠ": 3324,
      "condĠ": 3325,
      "amp": 3326,
      "e.ĊâĢĥ": 3327,
      "angel": 3328,
      "givenĠ": 3329,
      "leav": 3330,
      "tryĠ": 3331,
      "tree": 3332,
      "deser": 3333,
      "despair": 3334,
      "abo": 3335,
      "ence,Ċ": 3336,
      "nak": 3337,
      "Ġmaster": 3338,
      "sick": 3339,
      "MarkĠ": 3340,
      "ifĠyouĠ": 3341,
      "bothĠ": 3342,
      "OnlyĠ": 3343,
      "clear": 3344,
      "honestĠ": 3345,
      "tribun": 3346,
      "triumph": 3347,
      "women": 3348,
      "appear": 3349,
      "lady": 3350,
      "haveĊ": 3351,
      "grief": 3352,
      "some": 3353,
      "ĠdothĠ": 3354,
      "ĊThan": 3355,
      "dece": 3356,
      "divin": 3357,
      "servic": 3358,
      "ysic": 3359,
      "tenderĠ": 3360,
      "side": 3361,
      "Orlando": 3362,
      "husband": 3363,
      "needsĠ": 3364,
      "dinner": 3365,
      "remain": 3366,
      "dieu": 3367,
      "Silvi": 3368,
      "FICER.Ċ": 3369,
      "Brut": 3370,
      "Cor": 3371,
      "Celi": 3372,
      "Dis": 3373,
      "ETH": 3374,
      "Fir": 3375,
      "IRA": 3376,
      "Laf": 3377,
      "MER": 3378,
      "MAR": 3379,
      "OutĠ": 3380,
      "OĠL": 3381,
      "S,Ġ": 3382,
      "Sic": 3383,
      "aid": 3384,
      "as,Ġ": 3385,
      "bearĠ": 3386,
      "coldĠ": 3387,
      "clos": 3388,
      "dra": 3389,
      "dro": 3390,
      "eĊĊ": 3391,
      "either": 3392,
      "eopl": 3393,
      "fil": 3394,
      "goo": 3395,
      "goneĠ": 3396,
      "hi": 3397,
      "hind": 3398,
      "jew": 3399,
      "med": 3400,
      "ni": 3401,
      "rush": 3402,
      "se,Ġ": 3403,
      "sentĠ": 3404,
      "sight": 3405,
      "s!Ċ": 3406,
      "teĠ": 3407,
      "tee": 3408,
      "town": 3409,
      "ying": 3410,
      "y,ĊĠĠĠĠ": 3411,
      "ĊButĠ": 3412,
      "ĊFor": 3413,
      "ĊWith": 3414,
      "ĠĠTheĠ": 3415,
      "thri": 3416,
      ".ĊS": 3417,
      ",Ġor": 3418,
      ",ĠgoodĠ": 3419,
      "ins": 3420,
      "ant,Ġ": 3421,
      "enessĠ": 3422,
      "areĊ": 3423,
      "areĠw": 3424,
      ",ĊMyĠ": 3425,
      ".ĊĊ2": 3426,
      "andĠmyĠ": 3427,
      "Ġserv": 3428,
      "Ġhel": 3429,
      "Ġhum": 3430,
      "theĠst": 3431,
      "steal": 3432,
      "liz": 3433,
      "liev": 3434,
      "itter": 3435,
      "atedĠ": 3436,
      "IĠnotĠ": 3437,
      "IĠdo": 3438,
      "remo": 3439,
      "itĠnotĠ": 3440,
      "itĠnot": 3441,
      "e,ĊĠĠĠ": 3442,
      "ouldĊ": 3443,
      "whil": 3444,
      "dign": 3445,
      "idesĠ": 3446,
      "beyĠ": 3447,
      "Ġpur": 3448,
      "castĠ": 3449,
      "usĠwith": 3450,
      "nex": 3451,
      "worth": 3452,
      "spl": 3453,
      "estĠofĠ": 3454,
      "IĠsay": 3455,
      "umb": 3456,
      "ask": 3457,
      "dog": 3458,
      "ĠwhoseĠ": 3459,
      "ELIZ": 3460,
      "?ĊĠĠ": 3461,
      "deliver": 3462,
      "THEĠS": 3463,
      "cryĠ": 3464,
      "fireĠ": 3465,
      "proph": 3466,
      "saf": 3467,
      "ofĠman": 3468,
      "ĠspeakĠ": 3469,
      "newĠ": 3470,
      "possess": 3471,
      "e?ĊĊC": 3472,
      "ian,Ġ": 3473,
      "honourĠ": 3474,
      "shallĠb": 3475,
      "mayĠbeĠ": 3476,
      "eâĢĻer": 3477,
      "remem": 3478,
      "IV.Ġ": 3479,
      "mystic": 3480,
      "wrong": 3481,
      "wrest": 3482,
      "braveĠ": 3483,
      "itionĠ": 3484,
      "attend": 3485,
      "sword": 3486,
      "spirit": 3487,
      "ĊThanĠ": 3488,
      "corru": 3489,
      "ABETH": 3490,
      "fault": 3491,
      "flameĠ": 3492,
      "glas": 3493,
      "oath": 3494,
      "number": 3495,
      "vanta": 3496,
      "Lafew": 3497,
      ")Ġ": 3498,
      "?ĠO": 3499,
      "Ab": 3500,
      "Bet": 3501,
      "BeyondĠ": 3502,
      "Call": 3503,
      "DostĠ": 3504,
      "EGE": 3505,
      "FareĠ": 3506,
      "Ful": 3507,
      "Hell": 3508,
      "Lea": 3509,
      "Marry,Ġ": 3510,
      "REL": 3511,
      "Touch": 3512,
      "ail": 3513,
      "aff": 3514,
      "barr": 3515,
      "ct": 3516,
      "cous": 3517,
      "downĠ": 3518,
      "ei": 3519,
      "fightĠ": 3520,
      "hard": 3521,
      "keptĠ": 3522,
      "o'": 3523,
      "ot": 3524,
      "pea": 3525,
      "pour": 3526,
      "roundĠ": 3527,
      "sesĠ": 3528,
      "s?Ġ": 3529,
      "vell": 3530,
      "weĠs": 3531,
      "wish": 3532,
      "weenĠ": 3533,
      "ysĠ": 3534,
      "yselfĠ": 3535,
      "ĊByĠ": 3536,
      "ĠĠAndĠ": 3537,
      "thâĢĻ": 3538,
      "thinkĠ": 3539,
      "sĠon": 3540,
      ",Ġwith": 3541,
      "yĠtheĠ": 3542,
      "onc": 3543,
      "es;Ġ": 3544,
      ",ĊOrĠ": 3545,
      ".ĊĊ4": 3546,
      ".ĊĊTAN": 3547,
      "isĠtoĠ": 3548,
      "Ġsom": 3549,
      "ĠsweetĠ": 3550,
      "you.Ċ": 3551,
      "youĠb": 3552,
      "ĠmenĠ": 3553,
      ".ĠâĢĶĠ": 3554,
      "ĠaĠd": 3555,
      "Ġafter": 3556,
      "ĊĊTheĠ": 3557,
      "edĠmeĠ": 3558,
      "Ġback": 3559,
      "forĠaĠ": 3560,
      "rail": 3561,
      "elcom": 3562,
      "notĠmyĠ": 3563,
      "alĠb": 3564,
      "alĠp": 3565,
      "top": 3566,
      "toâĢĻt": 3567,
      "ingĠon": 3568,
      "ingĠinĠ": 3569,
      "eĊOf": 3570,
      "emor": 3571,
      "inĠandĠ": 3572,
      "stĠthou": 3573,
      "fash": 3574,
      "âĢĶandĠ": 3575,
      "!ĠO": 3576,
      "terri": 3577,
      "ruin": 3578,
      "Ġdown": 3579,
      "!ĊĊ[_": 3580,
      "onĠandĠ": 3581,
      "cond": 3582,
      "needĠ": 3583,
      "amb": 3584,
      "lovelyĠ": 3585,
      "her,Ġ": 3586,
      "allyĠ": 3587,
      "e.ĊTheĠ": 3588,
      "angu": 3589,
      "express": 3590,
      "Ġstri": 3591,
      "suc": 3592,
      "open": 3593,
      "pardon": 3594,
      "Cap": 3595,
      "leg": 3596,
      "deathĠ": 3597,
      "tonight": 3598,
      "cred": 3599,
      "past": 3600,
      "pairĠ": 3601,
      "eason": 3602,
      "FIRSTĠG": 3603,
      "CaesarĠ": 3604,
      "arrantĠ": 3605,
      "proper": 3606,
      "said": 3607,
      "twent": 3608,
      "scar": 3609,
      "heal": 3610,
      "voiceĠ": 3611,
      "ĠĠĠĠĠ|Ġ": 3612,
      "sheĠisĠ": 3613,
      "merc": 3614,
      "courseĠ": 3615,
      "gaz": 3616,
      "Char": 3617,
      "dull": 3618,
      "Martius": 3619,
      "!ĊĊCLEO": 3620,
      "Ġbreath": 3621,
      "captain": 3622,
      "Ċ|ĠX": 3623,
      "thinksĠ": 3624,
      "Ah,Ġ": 3625,
      "eĠworl": 3626,
      "Ġdesir": 3627,
      "[_Aside": 3628,
      "cheer": 3629,
      "bosom": 3630,
      "prayer": 3631,
      "Egypti": 3632,
      "Tribun": 3633,
      "beyondĠ": 3634,
      "IRAS.Ċ": 3635,
      "EGEON": 3636,
      "Fulvi": 3637,
      ";ĠheĠ": 3638,
      "AV": 3639,
      "Attend": 3640,
      "BO": 3641,
      "Bes": 3642,
      "CanĠ": 3643,
      "KN": 3644,
      "Larti": 3645,
      "So,Ġ": 3646,
      "Tw": 3647,
      "Vir": 3648,
      "bed": 3649,
      "ding": 3650,
      "dwell": 3651,
      "danger": 3652,
      "four": 3653,
      "glo": 3654,
      "gic": 3655,
      "gall": 3656,
      "idi": 3657,
      "met": 3658,
      "mod": 3659,
      "mut": 3660,
      "meet": 3661,
      "nerĠ": 3662,
      "payĠ": 3663,
      "peac": 3664,
      "ron": 3665,
      "red": 3666,
      "ueĠ": 3667,
      "won": 3668,
      "wiseĠ": 3669,
      "wix": 3670,
      "ĊHeĠ": 3671,
      "ĊIsĠ": 3672,
      "Ġof": 3673,
      ",ĠthouĠ": 3674,
      "anĠh": 3675,
      "eness": 3676,
      "arp": 3677,
      "aris": 3678,
      "ham": 3679,
      "esĊâĢĥ": 3680,
      "Ġsil": 3681,
      "Ġsta": 3682,
      "Ġstill": 3683,
      "Ġmer": 3684,
      "oman": 3685,
      "Ġway": 3686,
      ".ĠIf": 3687,
      ".ĠIfĠ": 3688,
      "ĠaĠh": 3689,
      "toĠbe": 3690,
      "toĠme": 3691,
      "stag": 3692,
      "edĠforĠ": 3693,
      "eekĠ": 3694,
      "formĠ": 3695,
      "issu": 3696,
      "e,ĠtoĠ": 3697,
      "ofĠGod": 3698,
      "eĊIn": 3699,
      "verseĠ": 3700,
      "madĠ": 3701,
      "majest": 3702,
      "shin": 3703,
      "?ĊĊMESS": 3704,
      "aĠgoodĠ": 3705,
      "heĠhath": 3706,
      "neither": 3707,
      "necess": 3708,
      "work": 3709,
      "worm": 3710,
      "worseĠ": 3711,
      "wordsĠ": 3712,
      "INST": 3713,
      "here": 3714,
      "suffer": 3715,
      "trust": 3716,
      "tsĠandĠ": 3717,
      "pois": 3718,
      "man,Ġ": 3719,
      "leap": 3720,
      "leavesĠ": 3721,
      "Within": 3722,
      "s,ĊâĢĥ": 3723,
      "goesĠ": 3724,
      "crim": 3725,
      "firm": 3726,
      "arrow": 3727,
      "saveĠ": 3728,
      "sakeĠ": 3729,
      "graveĠ": 3730,
      "ficeĠ": 3731,
      "udeĠ": 3732,
      "ance,Ġ": 3733,
      "guil": 3734,
      "ĠwordĠ": 3735,
      "Christ": 3736,
      "ĠthouĠw": 3737,
      "Master": 3738,
      "report": 3739,
      "duc": 3740,
      "IVĊĊ": 3741,
      "talk": 3742,
      "contem": 3743,
      "prepar": 3744,
      "looksĠ": 3745,
      "halfĠ": 3746,
      "OWNĠM": 3747,
      "ignor": 3748,
      "ticul": 3749,
      "SceneĠV": 3750,
      "Ġbeaut": 3751,
      "vali": 3752,
      "doubl": 3753,
      "Ġbetter": 3754,
      "...Ġ": 3755,
      "knav": 3756,
      "Their": 3757,
      "field": 3758,
      "UNKN": 3759,
      "MERCH": 3760,
      "INSTREL": 3761,
      "0ĊĊ": 3762,
      "1ĊĊ": 3763,
      "6ĊĊ": 3764,
      "7ĊĊ": 3765,
      "AY": 3766,
      "Ac": 3767,
      "BESS.Ċ": 3768,
      "Dol": 3769,
      "EreĠ": 3770,
      "Eliz": 3771,
      "HE": 3772,
      "HeĠs": 3773,
      "Had": 3774,
      "IĠbeĠ": 3775,
      "IDI": 3776,
      "MAE": 3777,
      "OCT": 3778,
      "SILV": 3779,
      "Tom": 3780,
      "UARD.Ċ": 3781,
      "abe": 3782,
      "bedĠ": 3783,
      "bal": 3784,
      "cent": 3785,
      "dess": 3786,
      "dest": 3787,
      "day,Ġ": 3788,
      "domĠ": 3789,
      "e;ĊĠĠĠĠ": 3790,
      "fitĠ": 3791,
      "found": 3792,
      "house": 3793,
      "ientĠ": 3794,
      "jour": 3795,
      "lu": 3796,
      "meetĠ": 3797,
      "pin": 3798,
      "pil": 3799,
      "patch": 3800,
      "rend": 3801,
      "rink": 3802,
      "sâĢĻ": 3803,
      "soldier": 3804,
      "sens": 3805,
      "tir": 3806,
      "veâĢĻsĠ": 3807,
      "wineĠ": 3808,
      "yĊĠĠĠĠ": 3809,
      "y;Ġ": 3810,
      "yster": 3811,
      "ymb": 3812,
      "sĠwithĠ": 3813,
      ".ĊAlex": 3814,
      ",Ġin": 3815,
      ",Ġmadam": 3816,
      "outhĠ": 3817,
      "ousĊ": 3818,
      "inĠthis": 3819,
      "ĠthusĠ": 3820,
      "ĠthreeĠ": 3821,
      "enseĠ": 3822,
      "eneath": 3823,
      ".ĊĊ3": 3824,
      ".ĊĊOLIV": 3825,
      "isĠhisĠ": 3826,
      "isĠthis": 3827,
      "often": 3828,
      "andĠtoĠ": 3829,
      "Ġsur": 3830,
      "ĠshaltĠ": 3831,
      "youĠbeĠ": 3832,
      "eathĠ": 3833,
      "Ġmis": 3834,
      "Ġmind": 3835,
      "Ġmad": 3836,
      "ĠmightĠ": 3837,
      "Ġmuch": 3838,
      "Ġwin": 3839,
      "ĠwellĠ": 3840,
      ".ĠL": 3841,
      ".ĠW": 3842,
      ".ĠLetĠ": 3843,
      "toĠseeĠ": 3844,
      "Then,Ġ": 3845,
      "Ġhigh": 3846,
      "ĠholdĠ": 3847,
      "stain": 3848,
      "stoodĠ": 3849,
      "chur": 3850,
      "chanceĠ": 3851,
      "Ġbir": 3852,
      "Ġbring": 3853,
      "Ġblood": 3854,
      "forthĠ": 3855,
      "IĠtakeĠ": 3856,
      "IĠknew": 3857,
      "us_.]Ġ": 3858,
      "rah": 3859,
      "rapt": 3860,
      "und": 3861,
      "laidĠ": 3862,
      "richĠ": 3863,
      "ed.ĊĊC": 3864,
      "rec": 3865,
      "reven": 3866,
      "almostĠ": 3867,
      "alread": 3868,
      "e,ĊToĠ": 3869,
      "Who": 3870,
      "mak": 3871,
      "tier": 3872,
      "sheĠs": 3873,
      "whomĠ": 3874,
      "whileĠ": 3875,
      "wholeĠ": 3876,
      "fam": 3877,
      "fast": 3878,
      "fastĠ": 3879,
      "aĠfool": 3880,
      "e.ĊĊ1": 3881,
      "compl": 3882,
      "aystĠ": 3883,
      "anĠun": 3884,
      "blow": 3885,
      "blush": 3886,
      "tast": 3887,
      "taken": 3888,
      "Ġpublic": 3889,
      "!ĊĊ[_Ex": 3890,
      "him.ĊĊ": 3891,
      "heĠdidĠ": 3892,
      "worn": 3893,
      "among": 3894,
      "ĠSOLDI": 3895,
      "LEX": 3896,
      "love,Ċ": 3897,
      "love.Ġ": 3898,
      "door": 3899,
      "ALER": 3900,
      "hearĠ": 3901,
      "heartĊ": 3902,
      "?ĠAndĠ": 3903,
      "canstĠ": 3904,
      "swear": 3905,
      "Capit": 3906,
      "self-": 3907,
      "poison": 3908,
      "flow": 3909,
      "gros": 3910,
      "grantĠ": 3911,
      "deb": 3912,
      "trou": 3913,
      "greater": 3914,
      "tten": 3915,
      "ardon": 3916,
      "abys": 3917,
      "first": 3918,
      "ofĠmen": 3919,
      "HathĠ": 3920,
      "two": 3921,
      "fiveĠ": 3922,
      "ItĠwasĠ": 3923,
      "offer": 3924,
      "drun": 3925,
      "carri": 3926,
      "WeĠareĠ": 3927,
      "reportĠ": 3928,
      ".ĠThere": 3929,
      "brain": 3930,
      "sworn": 3931,
      "finit": 3932,
      "ggar": 3933,
      "excell": 3934,
      "humanĠ": 3935,
      "virtueĠ": 3936,
      "Adam": 3937,
      "fullyĠ": 3938,
      "Dromio": 3939,
      "knaveĠ": 3940,
      "Florent": 3941,
      "Ġwrong": 3942,
      "maiden": 3943,
      "general": 3944,
      "tomb": 3945,
      "Phoeb": 3946,
      "Jaqu": 3947,
      "Heaven": 3948,
      ".ĠAlex": 3949,
      "Peace,Ġ": 3950,
      "Sicini": 3951,
      "jewel": 3952,
      "Elizabe": 3953,
      "MAECEN": 3954,
      "OCTAV": 3955,
      "ymbol": 3956,
      "Capitol": 3957,
      "2ĊĊ": 3958,
      "8ĊĊ": 3959,
      "AĠm": 3960,
      "Des": 3961,
      "Draw": 3962,
      "Foll": 3963,
      "Gu": 3964,
      "GetĠ": 3965,
      "Im": 3966,
      "ItsĠ": 3967,
      "NoneĠ": 3968,
      "OĠmyĠ": 3969,
      "OOTH": 3970,
      "Read": 3971,
      "SAY": 3972,
      "VIRGIL": 3973,
      "ath": 3974,
      "cel": 3975,
      "citiz": 3976,
      "dedĠ": 3977,
      "dir": 3978,
      "dumb": 3979,
      "ebe": 3980,
      "ethĠ": 3981,
      "ginĠ": 3982,
      "ge.ĊĊ": 3983,
      "gard": 3984,
      "hem": 3985,
      "hell": 3986,
      "horr": 3987,
      "istress": 3988,
      "lĠ": 3989,
      "metĠ": 3990,
      "oon": 3991,
      "oce": 3992,
      "sound": 3993,
      "tl": 3994,
      "tlyĠ": 3995,
      "vain": 3996,
      "wal": 3997,
      "wid": 3998,
      "weak": 3999,
      "Âł": 4000,
      "thin": 4001,
      "thos": 4002,
      ".ĊĠĠĠ": 4003,
      ".ĊYou": 4004,
      ",ĠlikeĠ": 4005,
      ",ĠwhatĠ": 4006,
      ",Ġwhich": 4007,
      ",ĠandĊ": 4008,
      "inu": 4009,
      "ern": 4010,
      "ĠthinkĠ": 4011,
      "orousĠ": 4012,
      "on.Ċ": 4013,
      "ester": 4014,
      ",ĊR": 4015,
      ",ĊW": 4016,
      ",ĊIĠ": 4017,
      ",ĊAĠ": 4018,
      ",ĊOr": 4019,
      "Ġseem": 4020,
      "âĢĻd,Ġ": 4021,
      "Ġmight": 4022,
      "ĠwayĠ": 4023,
      "ĠaĠman": 4024,
      "toĠw": 4025,
      "edĠhisĠ": 4026,
      "edĠupon": 4027,
      "lity": 4028,
      "Ġbod": 4029,
      "fore": 4030,
      "forĠher": 4031,
      "IĠforĠ": 4032,
      "impleĠ": 4033,
      "ras": 4034,
      "eder": 4035,
      "revol": 4036,
      "alĠandĠ": 4037,
      "e,ĊAsĠ": 4038,
      "eĠwellĠ": 4039,
      "WhileĠ": 4040,
      "tiveĠ": 4041,
      "whol": 4042,
      "entlyĠ": 4043,
      "areĠmyĠ": 4044,
      "tak": 4045,
      ";ĠforĠ": 4046,
      "iful": 4047,
      "ifĠheĠ": 4048,
      "!ĊĊALIC": 4049,
      "ĊâĢĥIn": 4050,
      "eci": 4051,
      "ectedĠ": 4052,
      "love.ĊĊ": 4053,
      "pluck": 4054,
      "herĠs": 4055,
      "Indeed": 4056,
      "sĊAndĠ": 4057,
      "sĊToĠ": 4058,
      "e.ĊButĠ": 4059,
      "ĠĠĠAndĠ": 4060,
      "Ġwhom": 4061,
      "trulyĠ": 4062,
      "time,Ġ": 4063,
      "timeĊ": 4064,
      "growsĠ": 4065,
      "ICH": 4066,
      "ĠmeĠtoĠ": 4067,
      "dew": 4068,
      "abell": 4069,
      "ence.Ċ": 4070,
      "viousĠ": 4071,
      "sail": 4072,
      "play": 4073,
      "letĠhim": 4074,
      "fix": 4075,
      "scorn": 4076,
      "Ġworth": 4077,
      "ByĠmyĠ": 4078,
      "Ġthank": 4079,
      "|ĠÂł": 4080,
      "curl": 4081,
      "lackĠ": 4082,
      "gainĠ": 4083,
      ".ĊĊAU": 4084,
      ",ĠwhenĠ": 4085,
      "denyĠ": 4086,
      "thank": 4087,
      "Arden": 4088,
      "theirĠs": 4089,
      "lossom": 4090,
      "ILL": 4091,
      "shipĠ": 4092,
      "kissesĠ": 4093,
      "attleĠ": 4094,
      "ticĠ": 4095
    },
    "merges": [
      [
        "Ġ",
        "Ġ"
      ],
      [
        "-",
        "-"
      ],
      [
        "e",
        "Ġ"
      ],
      [
        "ĠĠ",
        "ĠĠ"
      ],
      [
        "t",
        "h"
      ],
      [
        "--",
        "--"
      ],
      [
        "s",
        "Ġ"
      ],
      [
        "t",
        "Ġ"
      ],
      [
        "d",
        "Ġ"
      ],
      [
        ".",
        "Ċ"
      ],
      [
        ",",
        "Ġ"
      ],
      [
        "o",
        "u"
      ],
      [
        "i",
        "n"
      ],
      [
        "e",
        "r"
      ],
      [
        "a",
        "n"
      ],
      [
        "y",
        "Ġ"
      ],
      [
        "Ġ",
        "th"
      ],
      [
        "o",
        "r"
      ],
      [
        "e",
        "n"
      ],
      [
        "a",
        "r"
      ],
      [
        "o",
        "Ġ"
      ],
      [
        "â",
        "Ģ"
      ],
      [
        "o",
        "n"
      ],
      [
        "l",
        "l"
      ],
      [
        "h",
        "a"
      ],
      [
        "e",
        "s"
      ],
      [
        ",",
        "Ċ"
      ],
      [
        ".Ċ",
        "Ċ"
      ],
      [
        "i",
        "sĠ"
      ],
      [
        "o",
        "f"
      ],
      [
        "an",
        "dĠ"
      ],
      [
        "Ġ",
        "s"
      ],
      [
        "y",
        "ou"
      ],
      [
        "e",
        "a"
      ],
      [
        "âĢ",
        "Ļ"
      ],
      [
        "Ġ",
        "m"
      ],
      [
        "in",
        "g"
      ],
      [
        "Ġth",
        "eĠ"
      ],
      [
        "o",
        "m"
      ],
      [
        "o",
        "w"
      ],
      [
        "Ġ",
        "w"
      ],
      [
        ".",
        "Ġ"
      ],
      [
        "Ġ",
        "a"
      ],
      [
        "t",
        "oĠ"
      ],
      [
        "T",
        "h"
      ],
      [
        "Ġ",
        "h"
      ],
      [
        "th",
        "eĠ"
      ],
      [
        "Ċ",
        "Ċ"
      ],
      [
        "s",
        "t"
      ],
      [
        "e",
        "dĠ"
      ],
      [
        "v",
        "eĠ"
      ],
      [
        "c",
        "h"
      ],
      [
        "l",
        "i"
      ],
      [
        "i",
        "r"
      ],
      [
        "n",
        "o"
      ],
      [
        "Ġ",
        "b"
      ],
      [
        "e",
        "e"
      ],
      [
        "f",
        "or"
      ],
      [
        "i",
        "t"
      ],
      [
        "i",
        "th"
      ],
      [
        "a",
        "tĠ"
      ],
      [
        "g",
        "h"
      ],
      [
        "i",
        "s"
      ],
      [
        "er",
        "Ġ"
      ],
      [
        "e",
        ",Ġ"
      ],
      [
        "a",
        "t"
      ],
      [
        "I",
        "Ġ"
      ],
      [
        "e",
        "sĠ"
      ],
      [
        "i",
        "m"
      ],
      [
        "ll",
        "Ġ"
      ],
      [
        "l",
        "o"
      ],
      [
        "e",
        "ar"
      ],
      [
        "u",
        "r"
      ],
      [
        "A",
        "n"
      ],
      [
        "u",
        "s"
      ],
      [
        "r",
        "a"
      ],
      [
        "of",
        "Ġ"
      ],
      [
        "e",
        "l"
      ],
      [
        "o",
        "l"
      ],
      [
        "S",
        ".Ċ"
      ],
      [
        "ou",
        "r"
      ],
      [
        "Ċ",
        "ĠĠĠĠ"
      ],
      [
        "u",
        "n"
      ],
      [
        "no",
        "tĠ"
      ],
      [
        "l",
        "a"
      ],
      [
        "r",
        "i"
      ],
      [
        "e",
        "d"
      ],
      [
        "o",
        "s"
      ],
      [
        "An",
        "dĠ"
      ],
      [
        "u",
        "tĠ"
      ],
      [
        "r",
        "e"
      ],
      [
        "ha",
        "tĠ"
      ],
      [
        "âĢĻ",
        "sĠ"
      ],
      [
        "a",
        "l"
      ],
      [
        "i",
        "l"
      ],
      [
        "i",
        "tĠ"
      ],
      [
        "t",
        "o"
      ],
      [
        "you",
        "r"
      ],
      [
        "ing",
        "Ġ"
      ],
      [
        "A",
        "N"
      ],
      [
        "Th",
        "eĠ"
      ],
      [
        "e",
        "Ċ"
      ],
      [
        "m",
        "yĠ"
      ],
      [
        ",Ġ",
        "andĠ"
      ],
      [
        "e",
        ",Ċ"
      ],
      [
        "eĠ",
        "w"
      ],
      [
        "W",
        "h"
      ],
      [
        "ou",
        "l"
      ],
      [
        "e",
        "m"
      ],
      [
        "k",
        "eĠ"
      ],
      [
        "in",
        "Ġ"
      ],
      [
        "th",
        "atĠ"
      ],
      [
        "en",
        "Ġ"
      ],
      [
        "a",
        "sĠ"
      ],
      [
        "U",
        "S.Ċ"
      ],
      [
        "er",
        "eĠ"
      ],
      [
        "E",
        "N"
      ],
      [
        "v",
        "er"
      ],
      [
        "ha",
        "veĠ"
      ],
      [
        "âĢ",
        "ĥ"
      ],
      [
        "m",
        "a"
      ],
      [
        "t",
        "i"
      ],
      [
        "you",
        "Ġ"
      ],
      [
        "r",
        "ea"
      ],
      [
        "s",
        "h"
      ],
      [
        "w",
        "h"
      ],
      [
        "d",
        "i"
      ],
      [
        "s",
        "tĠ"
      ],
      [
        "r",
        "o"
      ],
      [
        "e",
        "t"
      ],
      [
        "?",
        "ĊĊ"
      ],
      [
        "e",
        "tĠ"
      ],
      [
        "f",
        "a"
      ],
      [
        "a",
        "Ġ"
      ],
      [
        "A",
        ".Ċ"
      ],
      [
        "e",
        "ll"
      ],
      [
        "n",
        "ow"
      ],
      [
        "o",
        "o"
      ],
      [
        "w",
        "ith"
      ],
      [
        "e",
        ".ĊĊ"
      ],
      [
        "m",
        "eĠ"
      ],
      [
        "c",
        "eĠ"
      ],
      [
        "Ġm",
        "yĠ"
      ],
      [
        "c",
        "om"
      ],
      [
        "en",
        "t"
      ],
      [
        "a",
        "y"
      ],
      [
        "âĢ",
        "Ķ"
      ],
      [
        "i",
        "ll"
      ],
      [
        "!",
        "Ġ"
      ],
      [
        "an",
        "Ġ"
      ],
      [
        "th",
        "ou"
      ],
      [
        "th",
        "er"
      ],
      [
        "oul",
        "dĠ"
      ],
      [
        "c",
        "k"
      ],
      [
        "t",
        "er"
      ],
      [
        "ar",
        "eĠ"
      ],
      [
        "i",
        "gh"
      ],
      [
        "b",
        "l"
      ],
      [
        "es",
        "s"
      ],
      [
        "r",
        "om"
      ],
      [
        "r",
        "u"
      ],
      [
        "i",
        "d"
      ],
      [
        "b",
        "e"
      ],
      [
        "t",
        "a"
      ],
      [
        "Ġ",
        "p"
      ],
      [
        "an",
        "d"
      ],
      [
        "eĠ",
        "s"
      ],
      [
        ";",
        "Ġ"
      ],
      [
        "i",
        "f"
      ],
      [
        "u",
        "p"
      ],
      [
        "Ġ",
        "d"
      ],
      [
        "th",
        "e"
      ],
      [
        "ou",
        "n"
      ],
      [
        "O",
        "L"
      ],
      [
        "!",
        "ĊĊ"
      ],
      [
        "c",
        "a"
      ],
      [
        "s",
        ",Ġ"
      ],
      [
        "E",
        "R"
      ],
      [
        "on",
        "Ġ"
      ],
      [
        "y",
        ",Ġ"
      ],
      [
        "A",
        "R"
      ],
      [
        "h",
        "im"
      ],
      [
        "Ċ",
        "âĢĥ"
      ],
      [
        "u",
        "sĠ"
      ],
      [
        "Ġth",
        "atĠ"
      ],
      [
        "b",
        "eĠ"
      ],
      [
        "a",
        "yĠ"
      ],
      [
        "h",
        "eĠ"
      ],
      [
        "T",
        "hatĠ"
      ],
      [
        "c",
        "on"
      ],
      [
        "n",
        "e"
      ],
      [
        "ch",
        "Ġ"
      ],
      [
        "th",
        "Ġ"
      ],
      [
        "Ġth",
        "e"
      ],
      [
        "h",
        "isĠ"
      ],
      [
        "en",
        "d"
      ],
      [
        "i",
        "llĠ"
      ],
      [
        "s",
        "el"
      ],
      [
        "w",
        "or"
      ],
      [
        ".ĊĊ",
        "C"
      ],
      [
        "I",
        "N"
      ],
      [
        ",Ċ",
        "ĠĠĠĠ"
      ],
      [
        "a",
        "m"
      ],
      [
        "ow",
        "n"
      ],
      [
        "q",
        "u"
      ],
      [
        "or",
        "Ġ"
      ],
      [
        "k",
        "Ġ"
      ],
      [
        "o",
        "d"
      ],
      [
        "I",
        "Ġw"
      ],
      [
        "i",
        "c"
      ],
      [
        "u",
        "l"
      ],
      [
        "T",
        "oĠ"
      ],
      [
        "[",
        "_"
      ],
      [
        "l",
        "yĠ"
      ],
      [
        "a",
        "in"
      ],
      [
        "f",
        "rom"
      ],
      [
        "Ġ",
        "S"
      ],
      [
        "L",
        "E"
      ],
      [
        "of",
        "ĠtheĠ"
      ],
      [
        "t",
        ",Ġ"
      ],
      [
        "es",
        "sĠ"
      ],
      [
        "your",
        "Ġ"
      ],
      [
        "s",
        "p"
      ],
      [
        "e",
        "c"
      ],
      [
        "our",
        "Ġ"
      ],
      [
        "in",
        "ĠtheĠ"
      ],
      [
        "B",
        "utĠ"
      ],
      [
        "Ġh",
        "isĠ"
      ],
      [
        "U",
        "S"
      ],
      [
        "k",
        "now"
      ],
      [
        "e",
        ".Ġ"
      ],
      [
        "n",
        "oĠ"
      ],
      [
        "es",
        "tĠ"
      ],
      [
        "on",
        "g"
      ],
      [
        ".Ċ",
        "ĠĠĠĠ"
      ],
      [
        "lo",
        "v"
      ],
      [
        ".",
        "_"
      ],
      [
        "p",
        "l"
      ],
      [
        ";",
        "Ċ"
      ],
      [
        "b",
        "utĠ"
      ],
      [
        "es",
        "t"
      ],
      [
        "O",
        "R"
      ],
      [
        "t",
        "erĠ"
      ],
      [
        "h",
        "er"
      ],
      [
        "O",
        "N"
      ],
      [
        "on",
        "eĠ"
      ],
      [
        "ou",
        "gh"
      ],
      [
        "R",
        "A"
      ],
      [
        "a",
        "ll"
      ],
      [
        "E",
        "S"
      ],
      [
        "I",
        "Ġs"
      ],
      [
        "a",
        "g"
      ],
      [
        "oo",
        "dĠ"
      ],
      [
        "Ġ",
        "O"
      ],
      [
        "u",
        "m"
      ],
      [
        "u",
        "t"
      ],
      [
        ",Ġ",
        "s"
      ],
      [
        "I",
        "Ġa"
      ],
      [
        "a",
        "s"
      ],
      [
        "in",
        "eĠ"
      ],
      [
        "e",
        "v"
      ],
      [
        "f",
        "Ġ"
      ],
      [
        "d",
        "o"
      ],
      [
        "in",
        "d"
      ],
      [
        "Ġth",
        "isĠ"
      ],
      [
        "e",
        "y"
      ],
      [
        "s",
        "eĠ"
      ],
      [
        "i",
        "on"
      ],
      [
        "I",
        "n"
      ],
      [
        "d",
        "oĠ"
      ],
      [
        "m",
        "or"
      ],
      [
        "p",
        "r"
      ],
      [
        "ee",
        "p"
      ],
      [
        ",Ċ",
        "AndĠ"
      ],
      [
        "s",
        "Ċ"
      ],
      [
        "AN",
        "T"
      ],
      [
        "ou",
        "Ġ"
      ],
      [
        "lo",
        "veĠ"
      ],
      [
        "Ġth",
        "yĠ"
      ],
      [
        "b",
        "yĠ"
      ],
      [
        "for",
        "Ġ"
      ],
      [
        "ow",
        "Ġ"
      ],
      [
        "I",
        "US.Ċ"
      ],
      [
        "Ġw",
        "ith"
      ],
      [
        "Ġh",
        "im"
      ],
      [
        "A",
        "L"
      ],
      [
        "._",
        "]"
      ],
      [
        "e",
        ".Ċ"
      ],
      [
        "en",
        "tĠ"
      ],
      [
        "or",
        "d"
      ],
      [
        "R",
        "O"
      ],
      [
        "IĠa",
        "m"
      ],
      [
        "an",
        "g"
      ],
      [
        "h",
        "ear"
      ],
      [
        "ha",
        "ll"
      ],
      [
        "?",
        "Ġ"
      ],
      [
        "e",
        "âĢĻsĠ"
      ],
      [
        "p",
        "p"
      ],
      [
        "Ġa",
        "Ġ"
      ],
      [
        "!",
        "ĊĠĠĠĠ"
      ],
      [
        "e",
        "x"
      ],
      [
        "to",
        "ĠtheĠ"
      ],
      [
        "os",
        "tĠ"
      ],
      [
        "E",
        "n"
      ],
      [
        "ĠO",
        "F"
      ],
      [
        "ĠĠ",
        "Ġ"
      ],
      [
        "th",
        "yĠ"
      ],
      [
        "a",
        "d"
      ],
      [
        "Ġw",
        "h"
      ],
      [
        "D",
        ".Ċ"
      ],
      [
        "._]",
        "ĊĊ"
      ],
      [
        "E",
        "L"
      ],
      [
        "us",
        "tĠ"
      ],
      [
        "th",
        "isĠ"
      ],
      [
        "ou",
        "sĠ"
      ],
      [
        "Ġs",
        "t"
      ],
      [
        "ir",
        "Ġ"
      ],
      [
        "g",
        "i"
      ],
      [
        "S",
        "T"
      ],
      [
        "P",
        "H"
      ],
      [
        "ha",
        "llĠ"
      ],
      [
        "c",
        "an"
      ],
      [
        "s",
        "u"
      ],
      [
        "li",
        "keĠ"
      ],
      [
        "o",
        "p"
      ],
      [
        "p",
        "ar"
      ],
      [
        "F",
        "or"
      ],
      [
        "l",
        "eĠ"
      ],
      [
        "s",
        "w"
      ],
      [
        "t",
        "ru"
      ],
      [
        "ol",
        "dĠ"
      ],
      [
        "p",
        "er"
      ],
      [
        "M",
        "yĠ"
      ],
      [
        "t",
        "sĠ"
      ],
      [
        "ou",
        "tĠ"
      ],
      [
        "s",
        "e"
      ],
      [
        "I",
        "A.Ċ"
      ],
      [
        "c",
        "e"
      ],
      [
        "C",
        "a"
      ],
      [
        "t",
        "im"
      ],
      [
        "om",
        "eĠ"
      ],
      [
        "E",
        "x"
      ],
      [
        "g",
        "oodĠ"
      ],
      [
        "E",
        ".Ċ"
      ],
      [
        "I",
        "I"
      ],
      [
        "sel",
        "f"
      ],
      [
        "ee",
        "d"
      ],
      [
        "p",
        "o"
      ],
      [
        "st",
        "r"
      ],
      [
        "Ġ",
        "andĠ"
      ],
      [
        "is",
        "h"
      ],
      [
        "m",
        "an"
      ],
      [
        "os",
        "eĠ"
      ],
      [
        "l",
        "ea"
      ],
      [
        "Ġb",
        "eĠ"
      ],
      [
        "IĠ",
        "haveĠ"
      ],
      [
        "?",
        "Ċ"
      ],
      [
        "a",
        "w"
      ],
      [
        "f",
        "o"
      ],
      [
        "s",
        "oĠ"
      ],
      [
        "bl",
        "eĠ"
      ],
      [
        "e",
        "ver"
      ],
      [
        "l",
        "e"
      ],
      [
        "wh",
        "i"
      ],
      [
        "d",
        "ea"
      ],
      [
        ":",
        "Ċ"
      ],
      [
        "W",
        "hatĠ"
      ],
      [
        "I",
        "R"
      ],
      [
        "y",
        "Ċ"
      ],
      [
        "igh",
        "t"
      ],
      [
        "o",
        "ther"
      ],
      [
        "d",
        "er"
      ],
      [
        "A",
        "T"
      ],
      [
        "a",
        "c"
      ],
      [
        "Y",
        ".Ċ"
      ],
      [
        "f",
        "l"
      ],
      [
        "Ġs",
        "h"
      ],
      [
        "I",
        "AN"
      ],
      [
        "with",
        "Ġ"
      ],
      [
        "N",
        "o"
      ],
      [
        "âĢĻ",
        "t"
      ],
      [
        "âĢĻ",
        "dĠ"
      ],
      [
        "E",
        "Ġ"
      ],
      [
        "th",
        "erĠ"
      ],
      [
        "st",
        "er"
      ],
      [
        "thou",
        "Ġ"
      ],
      [
        "En",
        "terĠ"
      ],
      [
        "W",
        "ith"
      ],
      [
        "g",
        "r"
      ],
      [
        "di",
        "dĠ"
      ],
      [
        "[_",
        "Ex"
      ],
      [
        "I",
        "C"
      ],
      [
        "ol",
        "d"
      ],
      [
        "Ġm",
        "eĠ"
      ],
      [
        "igh",
        "tĠ"
      ],
      [
        "e,Ġ",
        "andĠ"
      ],
      [
        "ur",
        "eĠ"
      ],
      [
        "up",
        "on"
      ],
      [
        "d",
        "e"
      ],
      [
        "s",
        ".ĊĊ"
      ],
      [
        "es",
        ",Ġ"
      ],
      [
        "A",
        "sĠ"
      ],
      [
        "t",
        "on"
      ],
      [
        "H",
        "eĠ"
      ],
      [
        "t",
        "r"
      ],
      [
        "in",
        "k"
      ],
      [
        "li",
        "f"
      ],
      [
        "ir",
        ",Ġ"
      ],
      [
        "T",
        "H"
      ],
      [
        "g",
        "rea"
      ],
      [
        "s",
        ",Ċ"
      ],
      [
        "t",
        "t"
      ],
      [
        "!",
        "Ċ"
      ],
      [
        "g",
        "o"
      ],
      [
        "v",
        "en"
      ],
      [
        "I",
        "âĢĻ"
      ],
      [
        "A",
        "Ġ"
      ],
      [
        "for",
        "eĠ"
      ],
      [
        "d",
        "es"
      ],
      [
        "ar",
        "d"
      ],
      [
        "Ġ",
        "toĠ"
      ],
      [
        "in",
        "dĠ"
      ],
      [
        "ha",
        "dĠ"
      ],
      [
        "Ġh",
        "eĠ"
      ],
      [
        "the",
        "yĠ"
      ],
      [
        "t",
        "Ċ"
      ],
      [
        "âĢ",
        "ľ"
      ],
      [
        "âĢ",
        "Ŀ"
      ],
      [
        "s",
        "o"
      ],
      [
        "en",
        "dĠ"
      ],
      [
        "a",
        "b"
      ],
      [
        "e",
        "w"
      ],
      [
        "m",
        "e"
      ],
      [
        "c",
        "r"
      ],
      [
        "s",
        ".Ġ"
      ],
      [
        "th",
        "em"
      ],
      [
        "en",
        "c"
      ],
      [
        "v",
        "i"
      ],
      [
        "sĠ",
        "andĠ"
      ],
      [
        "Ġa",
        "sĠ"
      ],
      [
        "v",
        "esĠ"
      ],
      [
        "Ġh",
        "er"
      ],
      [
        "Ġb",
        "e"
      ],
      [
        "p",
        "a"
      ],
      [
        "u",
        "gh"
      ],
      [
        "ea",
        "s"
      ],
      [
        "f",
        "ir"
      ],
      [
        "ER",
        ".Ċ"
      ],
      [
        "F",
        "IR"
      ],
      [
        "i",
        "dĠ"
      ],
      [
        "FIR",
        "ST"
      ],
      [
        "Th",
        "isĠ"
      ],
      [
        "P",
        "AT"
      ],
      [
        "es",
        "ar"
      ],
      [
        "d",
        "is"
      ],
      [
        "Ġth",
        "em"
      ],
      [
        "Ca",
        "esar"
      ],
      [
        "or",
        "n"
      ],
      [
        "ur",
        "n"
      ],
      [
        "ma",
        "d"
      ],
      [
        "PAT",
        "R"
      ],
      [
        "es",
        "eĠ"
      ],
      [
        "Ġa",
        "ll"
      ],
      [
        "LE",
        "O"
      ],
      [
        "ANT",
        "ON"
      ],
      [
        "th",
        "ing"
      ],
      [
        "ar",
        "r"
      ],
      [
        "PATR",
        "A.Ċ"
      ],
      [
        "p",
        "h"
      ],
      [
        "lo",
        "o"
      ],
      [
        "RO",
        "S"
      ],
      [
        "p",
        "ro"
      ],
      [
        "s",
        "a"
      ],
      [
        "of",
        "Ġm"
      ],
      [
        "AL",
        "IN"
      ],
      [
        "ROS",
        "ALIN"
      ],
      [
        "+",
        "----"
      ],
      [
        "H",
        "a"
      ],
      [
        "f",
        "ul"
      ],
      [
        "g",
        "ra"
      ],
      [
        "t",
        "w"
      ],
      [
        "w",
        "hatĠ"
      ],
      [
        "an",
        "tĠ"
      ],
      [
        ",Ċ",
        "Wh"
      ],
      [
        "li",
        "gh"
      ],
      [
        "n",
        "a"
      ],
      [
        "w",
        "eĠ"
      ],
      [
        "ee",
        "tĠ"
      ],
      [
        "f",
        "ri"
      ],
      [
        "An",
        "ton"
      ],
      [
        "p",
        "la"
      ],
      [
        "d",
        ",Ġ"
      ],
      [
        "l",
        "etĠ"
      ],
      [
        "ar",
        "m"
      ],
      [
        "f",
        "i"
      ],
      [
        "Ġ",
        "L"
      ],
      [
        "ou",
        "s"
      ],
      [
        "ti",
        "on"
      ],
      [
        "O",
        "U"
      ],
      [
        "Ġm",
        "a"
      ],
      [
        "thou",
        "gh"
      ],
      [
        "C",
        "om"
      ],
      [
        "Y",
        "ou"
      ],
      [
        "Y",
        "ouĠ"
      ],
      [
        "s",
        "c"
      ],
      [
        "er",
        "e"
      ],
      [
        "ha",
        "t"
      ],
      [
        "m",
        "o"
      ],
      [
        "w",
        "asĠ"
      ],
      [
        "s",
        "i"
      ],
      [
        "Ġth",
        "âĢĻ"
      ],
      [
        "p",
        "ra"
      ],
      [
        "L",
        "etĠ"
      ],
      [
        "O",
        "f"
      ],
      [
        "u",
        "ch"
      ],
      [
        "e",
        "yĠ"
      ],
      [
        "b",
        "r"
      ],
      [
        "h",
        "ea"
      ],
      [
        "ea",
        "k"
      ],
      [
        "eĠw",
        "ith"
      ],
      [
        "ay",
        ",Ġ"
      ],
      [
        "ĠOF",
        "Ġ"
      ],
      [
        "O",
        "r"
      ],
      [
        "al",
        "Ġ"
      ],
      [
        "I",
        "tĠ"
      ],
      [
        "l",
        "ord"
      ],
      [
        "at",
        "eĠ"
      ],
      [
        "com",
        "eĠ"
      ],
      [
        "Ġth",
        "ee"
      ],
      [
        "ed",
        ",Ġ"
      ],
      [
        "mor",
        "eĠ"
      ],
      [
        "ma",
        "keĠ"
      ],
      [
        "er",
        "v"
      ],
      [
        "u",
        "d"
      ],
      [
        "y",
        ".ĊĊ"
      ],
      [
        "you",
        "Ġs"
      ],
      [
        "e,Ċ",
        "ĠĠĠĠ"
      ],
      [
        "om",
        "Ġ"
      ],
      [
        "no",
        "t"
      ],
      [
        "Ġb",
        "utĠ"
      ],
      [
        "sĠ",
        "ofĠ"
      ],
      [
        "ow",
        "er"
      ],
      [
        "M",
        "ar"
      ],
      [
        "oun",
        "dĠ"
      ],
      [
        "en",
        "ceĠ"
      ],
      [
        "AN",
        "D"
      ],
      [
        "gi",
        "veĠ"
      ],
      [
        "if",
        "Ġ"
      ],
      [
        "M",
        "EN"
      ],
      [
        "ed",
        "Ċ"
      ],
      [
        "ear",
        "Ġ"
      ],
      [
        "t",
        "edĠ"
      ],
      [
        "ta",
        "keĠ"
      ],
      [
        "e",
        "llĠ"
      ],
      [
        "y",
        "etĠ"
      ],
      [
        "IAN",
        "A.Ċ"
      ],
      [
        "e",
        "p"
      ],
      [
        "e",
        "un"
      ],
      [
        "m",
        "ostĠ"
      ],
      [
        "an",
        "c"
      ],
      [
        "Ġs",
        "p"
      ],
      [
        "g",
        "ain"
      ],
      [
        "t",
        "un"
      ],
      [
        "an",
        "yĠ"
      ],
      [
        "of",
        "f"
      ],
      [
        "ne",
        "w"
      ],
      [
        "C",
        "H"
      ],
      [
        "I",
        "Ġm"
      ],
      [
        "the",
        "eĠ"
      ],
      [
        "oun",
        "d"
      ],
      [
        "b",
        "o"
      ],
      [
        "i",
        "p"
      ],
      [
        "ea",
        "l"
      ],
      [
        "M",
        "I"
      ],
      [
        "Ġw",
        "hatĠ"
      ],
      [
        "ca",
        "ll"
      ],
      [
        "IĠam",
        "Ġ"
      ],
      [
        "d",
        "r"
      ],
      [
        "w",
        "ell"
      ],
      [
        ",Ġ",
        "theĠ"
      ],
      [
        "ar",
        "tĠ"
      ],
      [
        "a",
        "llĠ"
      ],
      [
        "O",
        "n"
      ],
      [
        "g",
        "eĠ"
      ],
      [
        "t",
        "ra"
      ],
      [
        "isĠ",
        "theĠ"
      ],
      [
        "grea",
        "tĠ"
      ],
      [
        "C",
        "US"
      ],
      [
        "f",
        "f"
      ],
      [
        "k",
        "ing"
      ],
      [
        "th",
        "en"
      ],
      [
        "ver",
        "yĠ"
      ],
      [
        "B",
        "e"
      ],
      [
        "Y",
        "RA"
      ],
      [
        "p",
        "os"
      ],
      [
        "ha",
        "th"
      ],
      [
        "Ġw",
        "eĠ"
      ],
      [
        "Ġa",
        "tĠ"
      ],
      [
        "Ġh",
        "ear"
      ],
      [
        "ĠS",
        "YRA"
      ],
      [
        "g",
        "u"
      ],
      [
        "h",
        "erĠ"
      ],
      [
        "âĢĻ",
        "stĠ"
      ],
      [
        "L",
        "AND"
      ],
      [
        "S",
        "oĠ"
      ],
      [
        "e",
        "?ĊĊ"
      ],
      [
        "s",
        "ee"
      ],
      [
        ".ĊĊ",
        "[_Ex"
      ],
      [
        "LE",
        "S.Ċ"
      ],
      [
        "CUS",
        "E.Ċ"
      ],
      [
        "b",
        "ea"
      ],
      [
        "P",
        "AR"
      ],
      [
        "c",
        "en"
      ],
      [
        "ar",
        "k"
      ],
      [
        "c",
        "ar"
      ],
      [
        "c",
        "oun"
      ],
      [
        "k",
        "is"
      ],
      [
        "Ġ",
        "ofĠ"
      ],
      [
        "at",
        "i"
      ],
      [
        "sh",
        "ouldĠ"
      ],
      [
        "I",
        "PH"
      ],
      [
        "O",
        ".Ċ"
      ],
      [
        "i",
        "an"
      ],
      [
        "you",
        ",Ġ"
      ],
      [
        "OL",
        "US"
      ],
      [
        "wor",
        "l"
      ],
      [
        "ANT",
        "IPH"
      ],
      [
        "c",
        "o"
      ],
      [
        "fri",
        "end"
      ],
      [
        "b",
        "er"
      ],
      [
        "c",
        "l"
      ],
      [
        "s",
        "on"
      ],
      [
        "y",
        ",Ċ"
      ],
      [
        "th",
        "ee"
      ],
      [
        ".ĊĊ",
        "S"
      ],
      [
        "it",
        "sĠ"
      ],
      [
        ";Ġ",
        "andĠ"
      ],
      [
        "I",
        "f"
      ],
      [
        "h",
        "on"
      ],
      [
        "Ġ",
        "in"
      ],
      [
        "to",
        "oĠ"
      ],
      [
        "PAR",
        "OL"
      ],
      [
        "C",
        "EN"
      ],
      [
        "of",
        "Ġs"
      ],
      [
        "E",
        "PH"
      ],
      [
        "us",
        "eĠ"
      ],
      [
        "D",
        "RO"
      ],
      [
        "MI",
        "O"
      ],
      [
        "DRO",
        "MIO"
      ],
      [
        "i",
        "ck"
      ],
      [
        "on",
        "ĠtheĠ"
      ],
      [
        "w",
        "illĠ"
      ],
      [
        "Ġw",
        "or"
      ],
      [
        "e,Ċ",
        "AndĠ"
      ],
      [
        "com",
        "m"
      ],
      [
        "B",
        "yĠ"
      ],
      [
        "W",
        "eĠ"
      ],
      [
        "i",
        "ch"
      ],
      [
        "v",
        "o"
      ],
      [
        "es",
        "Ċ"
      ],
      [
        "R",
        "om"
      ],
      [
        "v",
        "e"
      ],
      [
        "Ġth",
        "an"
      ],
      [
        "us",
        ",Ġ"
      ],
      [
        "Ġthe",
        "yĠ"
      ],
      [
        "IĠw",
        "illĠ"
      ],
      [
        "r",
        "ough"
      ],
      [
        "t",
        "ri"
      ],
      [
        "ĠĠĠĠ",
        "Ġ"
      ],
      [
        "----",
        "-"
      ],
      [
        "at",
        "ion"
      ],
      [
        "IN",
        "IUS.Ċ"
      ],
      [
        "IâĢĻ",
        "llĠ"
      ],
      [
        "ĠOFĠ",
        "EPH"
      ],
      [
        "I",
        "fĠ"
      ],
      [
        "s",
        ",ĠandĠ"
      ],
      [
        "an",
        "t"
      ],
      [
        "or",
        "eĠ"
      ],
      [
        "Th",
        "eyĠ"
      ],
      [
        "own",
        "Ġ"
      ],
      [
        "whi",
        "ch"
      ],
      [
        "I",
        "sĠ"
      ],
      [
        "|",
        "Ġ"
      ],
      [
        "of",
        "ĠmyĠ"
      ],
      [
        "ES",
        "US.Ċ"
      ],
      [
        "O",
        "Ġ"
      ],
      [
        "you",
        "Ġw"
      ],
      [
        ".Ġ",
        "A"
      ],
      [
        "Ġb",
        "yĠ"
      ],
      [
        "sh",
        "eĠ"
      ],
      [
        "a",
        "f"
      ],
      [
        "b",
        "et"
      ],
      [
        "n",
        "essĠ"
      ],
      [
        ",Ċ",
        "ĠĠ"
      ],
      [
        "him",
        "Ġ"
      ],
      [
        "from",
        "Ġ"
      ],
      [
        "b",
        "rea"
      ],
      [
        "g",
        "n"
      ],
      [
        "h",
        "o"
      ],
      [
        "n",
        "ess"
      ],
      [
        "r",
        "es"
      ],
      [
        "is",
        "eĠ"
      ],
      [
        "w",
        "ill"
      ],
      [
        "th",
        ",Ġ"
      ],
      [
        "Ġm",
        "an"
      ],
      [
        "ing",
        ",Ġ"
      ],
      [
        "Ġthe",
        "eĠ"
      ],
      [
        "G",
        "o"
      ],
      [
        "H",
        "isĠ"
      ],
      [
        "a",
        "Ġs"
      ],
      [
        "e",
        "eĠ"
      ],
      [
        "o",
        "âĢĻ"
      ],
      [
        "or",
        "r"
      ],
      [
        "re",
        "t"
      ],
      [
        "eĠw",
        "h"
      ],
      [
        "ereĠ",
        "isĠ"
      ],
      [
        ".ĊĊC",
        "LEO"
      ],
      [
        "whi",
        "chĠ"
      ],
      [
        "cen",
        "eĠ"
      ],
      [
        "v",
        "erĠ"
      ],
      [
        "G",
        "od"
      ],
      [
        "g",
        "od"
      ],
      [
        "j",
        "o"
      ],
      [
        "it",
        "eĠ"
      ],
      [
        "it",
        "yĠ"
      ],
      [
        "c",
        "ur"
      ],
      [
        "l",
        "or"
      ],
      [
        "w",
        "ouldĠ"
      ],
      [
        ".Ġ",
        "TheĠ"
      ],
      [
        "el",
        "yĠ"
      ],
      [
        "M",
        ".Ċ"
      ],
      [
        "d",
        "ay"
      ],
      [
        "e",
        "en"
      ],
      [
        "m",
        "er"
      ],
      [
        "Ġthe",
        "irĠ"
      ],
      [
        "'",
        "sĠ"
      ],
      [
        "c",
        "anĠ"
      ],
      [
        "g",
        "ent"
      ],
      [
        "can",
        "notĠ"
      ],
      [
        "D",
        "I"
      ],
      [
        "H",
        "Ã"
      ],
      [
        "N",
        "HÃ"
      ],
      [
        "R",
        "os"
      ],
      [
        "T",
        "AN"
      ],
      [
        "d",
        "Ċ"
      ],
      [
        "t",
        "yĠ"
      ],
      [
        "w",
        "ereĠ"
      ],
      [
        "Ħ",
        "US"
      ],
      [
        "OR",
        "LAND"
      ],
      [
        "NHÃ",
        "ĦUS"
      ],
      [
        "g",
        "oĠ"
      ],
      [
        "r",
        "ing"
      ],
      [
        "âĢĻ",
        "T"
      ],
      [
        "Ġthe",
        "ir"
      ],
      [
        "ag",
        "ain"
      ],
      [
        "T",
        "RA"
      ],
      [
        "W",
        ".Ċ"
      ],
      [
        "c",
        "ha"
      ],
      [
        "i",
        "chĠ"
      ],
      [
        "m",
        "ustĠ"
      ],
      [
        "t",
        "ell"
      ],
      [
        "ĠĠĠĠ",
        "ĠĠ"
      ],
      [
        "S",
        "CEN"
      ],
      [
        "c",
        "our"
      ],
      [
        "g",
        "e"
      ],
      [
        "p",
        "e"
      ],
      [
        "p",
        "ur"
      ],
      [
        "s",
        ".Ċ"
      ],
      [
        "s",
        "hall"
      ],
      [
        "Th",
        "yĠ"
      ],
      [
        "MEN",
        "EN"
      ],
      [
        "b",
        "a"
      ],
      [
        ",Ġ",
        "myĠ"
      ],
      [
        ".ĊĊ",
        "B"
      ],
      [
        "la",
        "ck"
      ],
      [
        "ma",
        "yĠ"
      ],
      [
        "g",
        "a"
      ],
      [
        "l",
        "and"
      ],
      [
        "l",
        "essĠ"
      ],
      [
        "s",
        "ha"
      ],
      [
        ".ĊĊ",
        "A"
      ],
      [
        "un",
        "der"
      ],
      [
        "OR",
        "D.Ċ"
      ],
      [
        "ĠL",
        "ORD.Ċ"
      ],
      [
        "B",
        "AR"
      ],
      [
        "u",
        "st"
      ],
      [
        "sĠ",
        "theĠ"
      ],
      [
        "in",
        "ĠmyĠ"
      ],
      [
        "ta",
        "in"
      ],
      [
        "fo",
        "ol"
      ],
      [
        "C",
        "h"
      ],
      [
        "F",
        "orĠ"
      ],
      [
        "H",
        "EL"
      ],
      [
        "O",
        "BAR"
      ],
      [
        "l",
        "ong"
      ],
      [
        "p",
        "as"
      ],
      [
        "sĠ",
        "toĠ"
      ],
      [
        ",Ġ",
        "wh"
      ],
      [
        "Ġth",
        "ou"
      ],
      [
        "Ġh",
        "ea"
      ],
      [
        "li",
        "v"
      ],
      [
        "IĠ",
        "know"
      ],
      [
        "EN",
        "OBAR"
      ],
      [
        "Ġwith",
        "Ġ"
      ],
      [
        "ENOBAR",
        "B"
      ],
      [
        "d",
        "en"
      ],
      [
        "e",
        "âĢĻ"
      ],
      [
        "u",
        "chĠ"
      ],
      [
        "en",
        "g"
      ],
      [
        "ar",
        "dĠ"
      ],
      [
        "li",
        "tt"
      ],
      [
        "ee",
        "t"
      ],
      [
        "SCEN",
        "EĠ"
      ],
      [
        "M",
        "a"
      ],
      [
        "l",
        "eep"
      ],
      [
        "y",
        ".Ġ"
      ],
      [
        "sel",
        "fĠ"
      ],
      [
        "ever",
        "yĠ"
      ],
      [
        "Ċ",
        "TheĠ"
      ],
      [
        "w",
        "ay"
      ],
      [
        "re",
        "p"
      ],
      [
        ",Ġs",
        "ir"
      ],
      [
        "No",
        "tĠ"
      ],
      [
        "Com",
        "e,Ġ"
      ],
      [
        "HEL",
        "EN"
      ],
      [
        "E",
        "C"
      ],
      [
        "th",
        "an"
      ],
      [
        "L",
        "A"
      ],
      [
        "O",
        "M"
      ],
      [
        "c",
        "i"
      ],
      [
        "v",
        "ir"
      ],
      [
        "eĠ",
        "andĠ"
      ],
      [
        "itĠ",
        "isĠ"
      ],
      [
        "oo",
        "d"
      ],
      [
        "EL",
        "IA.Ċ"
      ],
      [
        ";",
        "ĊĠĠĠĠ"
      ],
      [
        "c",
        "ouldĠ"
      ],
      [
        "f",
        "u"
      ],
      [
        "Ċ",
        "ToĠ"
      ],
      [
        "an",
        "ceĠ"
      ],
      [
        "ER",
        "TRA"
      ],
      [
        ",Ċ",
        "âĢĥ"
      ],
      [
        "ith",
        "er"
      ],
      [
        "ey",
        "esĠ"
      ],
      [
        "dea",
        "th"
      ],
      [
        "I",
        "OL"
      ],
      [
        "U",
        "n"
      ],
      [
        "b",
        "ear"
      ],
      [
        "k",
        "esĠ"
      ],
      [
        "Ġh",
        "erĠ"
      ],
      [
        "to",
        "o"
      ],
      [
        "ON",
        "D"
      ],
      [
        "A",
        "r"
      ],
      [
        "O",
        "ur"
      ],
      [
        "d",
        "u"
      ],
      [
        ",Ġ",
        "butĠ"
      ],
      [
        "?ĊĊ",
        "C"
      ],
      [
        "IN",
        "G"
      ],
      [
        "OR",
        "IOL"
      ],
      [
        "fo",
        "ll"
      ],
      [
        "EC",
        "OND"
      ],
      [
        "ORIOL",
        "AN"
      ],
      [
        "d",
        "on"
      ],
      [
        "w",
        "if"
      ],
      [
        "ou",
        "t"
      ],
      [
        "of",
        "Ġa"
      ],
      [
        "at",
        "ter"
      ],
      [
        "la",
        "m"
      ],
      [
        "eĊ",
        "âĢĥ"
      ],
      [
        "ES",
        "S.Ċ"
      ],
      [
        "f",
        "ar"
      ],
      [
        "m",
        "Ġ"
      ],
      [
        "ee",
        "l"
      ],
      [
        "re",
        "m"
      ],
      [
        "F",
        "E"
      ],
      [
        "I",
        "V"
      ],
      [
        "b",
        "ro"
      ],
      [
        "f",
        "ear"
      ],
      [
        "Ġth",
        "ouĠ"
      ],
      [
        "Ġs",
        "oĠ"
      ],
      [
        "ri",
        "gh"
      ],
      [
        "âĢĻt",
        "isĠ"
      ],
      [
        "A",
        "ES"
      ],
      [
        "S",
        "S"
      ],
      [
        "i",
        "veĠ"
      ],
      [
        "t",
        "al"
      ],
      [
        "er",
        "sĠ"
      ],
      [
        "ha",
        "sĠ"
      ],
      [
        "toĠ",
        "beĠ"
      ],
      [
        "the",
        "ir"
      ],
      [
        "ne",
        "ver"
      ],
      [
        "AES",
        "AR"
      ],
      [
        "es",
        ".ĊĊ"
      ],
      [
        "toĠ",
        "s"
      ],
      [
        "IĠ",
        "doĠ"
      ],
      [
        "con",
        "t"
      ],
      [
        "IĠw",
        "ill"
      ],
      [
        "LA",
        "FE"
      ],
      [
        ".",
        "]"
      ],
      [
        ".",
        "ĠĠĠĠ"
      ],
      [
        "K",
        "ING"
      ],
      [
        "m",
        "ineĠ"
      ],
      [
        "n",
        "at"
      ],
      [
        "p",
        "re"
      ],
      [
        "theĠ",
        "s"
      ],
      [
        "ch",
        "il"
      ],
      [
        "In",
        "Ġ"
      ],
      [
        "hear",
        "tĠ"
      ],
      [
        "TH",
        "EĠ"
      ],
      [
        "tw",
        "oĠ"
      ],
      [
        "LAFE",
        "W.Ċ"
      ],
      [
        "L",
        "o"
      ],
      [
        "S",
        "h"
      ],
      [
        "i",
        "v"
      ],
      [
        "o",
        "pl"
      ],
      [
        "w",
        "om"
      ],
      [
        "of",
        "Ġth"
      ],
      [
        "ra",
        "w"
      ],
      [
        "Wh",
        "yĠ"
      ],
      [
        "fa",
        "ir"
      ],
      [
        "e.ĊĊ",
        "C"
      ],
      [
        "e",
        "f"
      ],
      [
        ",Ċ",
        "ThatĠ"
      ],
      [
        "lo",
        "s"
      ],
      [
        "Wh",
        "oĠ"
      ],
      [
        ",Ġs",
        "ir,Ġ"
      ],
      [
        "Go",
        "dĠ"
      ],
      [
        "AESAR",
        ".Ċ"
      ],
      [
        "H",
        "owĠ"
      ],
      [
        "u",
        "b"
      ],
      [
        ".Ġ",
        "Th"
      ],
      [
        "eĠw",
        "asĠ"
      ],
      [
        "ti",
        "ll"
      ],
      [
        "tim",
        "eĠ"
      ],
      [
        "loo",
        "k"
      ],
      [
        "eun",
        "t"
      ],
      [
        "D",
        "R"
      ],
      [
        "I",
        "Ġth"
      ],
      [
        "N",
        "oĠ"
      ],
      [
        "an",
        "sw"
      ],
      [
        "you",
        "Ġm"
      ],
      [
        "ow",
        "sĠ"
      ],
      [
        "Wh",
        "enĠ"
      ],
      [
        "pr",
        "es"
      ],
      [
        "ligh",
        "t"
      ],
      [
        "e",
        "ĊĠĠĠĠ"
      ],
      [
        "g",
        "on"
      ],
      [
        "m",
        "y"
      ],
      [
        "m",
        "ar"
      ],
      [
        "w",
        "r"
      ],
      [
        "ĠtheĠ",
        "s"
      ],
      [
        "us",
        "h"
      ],
      [
        "II",
        "I"
      ],
      [
        "âĢĻT",
        "isĠ"
      ],
      [
        ":",
        "Ġ"
      ],
      [
        "A",
        "l"
      ],
      [
        "N",
        "ay,Ġ"
      ],
      [
        "O",
        ",Ġ"
      ],
      [
        "a",
        "Ġm"
      ],
      [
        "f",
        "r"
      ],
      [
        "m",
        "e,Ġ"
      ],
      [
        "in",
        "kĠ"
      ],
      [
        "ha",
        "pp"
      ],
      [
        "edĠ",
        "toĠ"
      ],
      [
        "com",
        "p"
      ],
      [
        "and",
        "Ċ"
      ],
      [
        "RA",
        "SS"
      ],
      [
        "AL",
        "IC"
      ],
      [
        ".",
        "âĢĶ"
      ],
      [
        "I",
        "L"
      ],
      [
        "b",
        "ra"
      ],
      [
        "v",
        "enĠ"
      ],
      [
        "th",
        "at"
      ],
      [
        "th",
        "ingĠ"
      ],
      [
        "in",
        "ceĠ"
      ],
      [
        "or",
        "i"
      ],
      [
        "en",
        ",Ġ"
      ],
      [
        "ha",
        "l"
      ],
      [
        "sh",
        "ip"
      ],
      [
        "pl",
        "eas"
      ],
      [
        "OU",
        "N"
      ],
      [
        "?",
        "ĊĠĠĠĠ"
      ],
      [
        "N",
        "ow"
      ],
      [
        "O",
        "fĠ"
      ],
      [
        "Y",
        "our"
      ],
      [
        "d",
        "sĠ"
      ],
      [
        "ea",
        "kĠ"
      ],
      [
        "Wh",
        "ereĠ"
      ],
      [
        "W",
        "ell"
      ],
      [
        "y",
        ".Ċ"
      ],
      [
        "Th",
        "ouĠ"
      ],
      [
        "it",
        "i"
      ],
      [
        "fa",
        "c"
      ],
      [
        "ong",
        "u"
      ],
      [
        "H",
        "ow"
      ],
      [
        "m",
        "i"
      ],
      [
        "o",
        "therĠ"
      ],
      [
        "p",
        "ri"
      ],
      [
        "s",
        "hallĠ"
      ],
      [
        "ha",
        "thĠ"
      ],
      [
        "ing",
        "sĠ"
      ],
      [
        "se",
        "eĠ"
      ],
      [
        "kis",
        "s"
      ],
      [
        "OUN",
        "T"
      ],
      [
        "I",
        "Z"
      ],
      [
        "g",
        "in"
      ],
      [
        "Ċ",
        "ThatĠ"
      ],
      [
        "ch",
        "ar"
      ],
      [
        "for",
        "tun"
      ],
      [
        "id",
        "eĠ"
      ],
      [
        "ec",
        "tĠ"
      ],
      [
        "D",
        "u"
      ],
      [
        "T",
        "o"
      ],
      [
        "W",
        "N"
      ],
      [
        "m",
        "in"
      ],
      [
        "n",
        "g"
      ],
      [
        "t",
        "ongu"
      ],
      [
        "y",
        ",ĠandĠ"
      ],
      [
        "you",
        "ng"
      ],
      [
        "edĠ",
        "with"
      ],
      [
        "li",
        "p"
      ],
      [
        "Ġb",
        "o"
      ],
      [
        "KING",
        ".Ċ"
      ],
      [
        "D",
        "U"
      ],
      [
        "L",
        "i"
      ],
      [
        "Y",
        "etĠ"
      ],
      [
        "o",
        ",Ġ"
      ],
      [
        "t",
        "u"
      ],
      [
        "Ġ",
        "C"
      ],
      [
        "fa",
        "ther"
      ],
      [
        "par",
        "t"
      ],
      [
        "G",
        "oodĠ"
      ],
      [
        "O",
        "WN"
      ],
      [
        "s",
        "ur"
      ],
      [
        "Ġ",
        "isĠ"
      ],
      [
        "ou",
        "ch"
      ],
      [
        "of",
        "ĠhisĠ"
      ],
      [
        ".Ġ",
        "S"
      ],
      [
        "Wh",
        "y,Ġ"
      ],
      [
        "fa",
        "ll"
      ],
      [
        "OL",
        "DI"
      ],
      [
        "ne",
        "verĠ"
      ],
      [
        "DU",
        "K"
      ],
      [
        "_",
        ".]"
      ],
      [
        "a",
        "pp"
      ],
      [
        "o",
        "ver"
      ],
      [
        "in",
        "Ġs"
      ],
      [
        "at",
        "t"
      ],
      [
        "lo",
        "od"
      ],
      [
        "lea",
        "veĠ"
      ],
      [
        "I",
        "D"
      ],
      [
        "I",
        "T"
      ],
      [
        "T",
        "US.Ċ"
      ],
      [
        "d",
        "stĠ"
      ],
      [
        "n",
        "am"
      ],
      [
        "r",
        "os"
      ],
      [
        ",Ċ",
        "S"
      ],
      [
        "Wh",
        "en"
      ],
      [
        "ev",
        "il"
      ],
      [
        "ĠthâĢĻ",
        "Ġ"
      ],
      [
        ".",
        "âĢĿ"
      ],
      [
        "F",
        "rom"
      ],
      [
        "f",
        "indĠ"
      ],
      [
        "g",
        "old"
      ],
      [
        "h",
        "and"
      ],
      [
        "k",
        "eep"
      ],
      [
        "s",
        "ayĠ"
      ],
      [
        "Ċ",
        "AndĠ"
      ],
      [
        ".Ċ",
        "ĠĠ"
      ],
      [
        "in",
        "c"
      ],
      [
        "ing",
        "Ġs"
      ],
      [
        "edĠ",
        "theĠ"
      ],
      [
        "la",
        "d"
      ],
      [
        "gain",
        "stĠ"
      ],
      [
        "l",
        "et"
      ],
      [
        "p",
        "t"
      ],
      [
        "|",
        "Ċ"
      ],
      [
        ",Ċ",
        "ĠĠĠ"
      ],
      [
        "at",
        "ch"
      ],
      [
        "mad",
        "am"
      ],
      [
        "B",
        "eĠ"
      ],
      [
        "R",
        "U"
      ],
      [
        "i",
        "gn"
      ],
      [
        "m",
        "il"
      ],
      [
        "o",
        "b"
      ],
      [
        "Ġth",
        "eseĠ"
      ],
      [
        "or",
        "t"
      ],
      [
        "ti",
        "c"
      ],
      [
        "ther",
        "e"
      ],
      [
        "con",
        "s"
      ],
      [
        "ut",
        "yĠ"
      ],
      [
        "Ros",
        "al"
      ],
      [
        "s",
        "wor"
      ],
      [
        "your",
        "Ġs"
      ],
      [
        "now",
        "Ġ"
      ],
      [
        "com",
        "esĠ"
      ],
      [
        "lif",
        "eĠ"
      ],
      [
        "pe",
        "opl"
      ],
      [
        "litt",
        "leĠ"
      ],
      [
        "A",
        "S.Ċ"
      ],
      [
        "d",
        "ear"
      ],
      [
        "f",
        "in"
      ],
      [
        "m",
        "p"
      ],
      [
        "n",
        "Ġ"
      ],
      [
        ",Ġ",
        "h"
      ],
      [
        "ha",
        "stĠ"
      ],
      [
        "for",
        "m"
      ],
      [
        "ol",
        "di"
      ],
      [
        "la",
        "ugh"
      ],
      [
        "rea",
        "d"
      ],
      [
        "the",
        "irĠ"
      ],
      [
        "ough",
        "tĠ"
      ],
      [
        "With",
        "Ġ"
      ],
      [
        "FIRST",
        "ĠS"
      ],
      [
        "RU",
        "TUS.Ċ"
      ],
      [
        "S",
        "ceneĠ"
      ],
      [
        "Y",
        "ourĠ"
      ],
      [
        "w",
        "eetĠ"
      ],
      [
        "ha",
        "v"
      ],
      [
        "âĢĻ",
        "Ġ"
      ],
      [
        "Ġm",
        "e"
      ],
      [
        "it",
        ".ĊĊ"
      ],
      [
        "ed",
        ",Ċ"
      ],
      [
        "ang",
        "eĠ"
      ],
      [
        "hear",
        "t"
      ],
      [
        "ST",
        "ON"
      ],
      [
        "Mar",
        "ti"
      ],
      [
        "T",
        "OU"
      ],
      [
        "b",
        "ar"
      ],
      [
        "g",
        "ri"
      ],
      [
        "h",
        "el"
      ],
      [
        "s",
        "oul"
      ],
      [
        "Ċ",
        "A"
      ],
      [
        "yĠ",
        "andĠ"
      ],
      [
        "toĠ",
        "myĠ"
      ],
      [
        "il",
        "eĠ"
      ],
      [
        "sp",
        "ir"
      ],
      [
        "IAN",
        ".Ċ"
      ],
      [
        "IâĢĻ",
        "ll"
      ],
      [
        "CH",
        "STON"
      ],
      [
        "E",
        "S.Ċ"
      ],
      [
        "s",
        "om"
      ],
      [
        "s",
        "ir,Ġ"
      ],
      [
        "t",
        "en"
      ],
      [
        "w",
        "a"
      ],
      [
        "ĠĠĠĠ",
        "ĠĠĠ"
      ],
      [
        "âĢĻ",
        "tĠ"
      ],
      [
        "li",
        "c"
      ],
      [
        "la",
        "c"
      ],
      [
        "Ġd",
        "o"
      ],
      [
        "!ĊĊ",
        "C"
      ],
      [
        "Ġth",
        "is"
      ],
      [
        "edĠ",
        "byĠ"
      ],
      [
        "Ġb",
        "ea"
      ],
      [
        "rea",
        "m"
      ],
      [
        "up",
        "onĠ"
      ],
      [
        "ec",
        "t"
      ],
      [
        "des",
        "ir"
      ],
      [
        "mad",
        "eĠ"
      ],
      [
        "Ha",
        "veĠ"
      ],
      [
        "OLUS",
        "ĠOF"
      ],
      [
        "C",
        "T"
      ],
      [
        "H",
        "er"
      ],
      [
        "f",
        "ell"
      ],
      [
        "m",
        "ent"
      ],
      [
        "n",
        "ight"
      ],
      [
        "s",
        "omeĠ"
      ],
      [
        "es",
        ".Ġ"
      ],
      [
        "Ġw",
        "asĠ"
      ],
      [
        "Ġb",
        "rea"
      ],
      [
        "esĠ",
        "ofĠ"
      ],
      [
        "wh",
        "en"
      ],
      [
        "ev",
        "erĠ"
      ],
      [
        "sw",
        "eetĠ"
      ],
      [
        "fir",
        "stĠ"
      ],
      [
        "n",
        "or"
      ],
      [
        "Ċ",
        "Th"
      ],
      [
        "in",
        "i"
      ],
      [
        ",Ċ",
        "TheĠ"
      ],
      [
        "st",
        "ill"
      ],
      [
        "no",
        "t,Ġ"
      ],
      [
        "oo",
        "k"
      ],
      [
        "ca",
        "p"
      ],
      [
        "sp",
        "eak"
      ],
      [
        "tru",
        "eĠ"
      ],
      [
        "pra",
        "yĠ"
      ],
      [
        "C",
        "le"
      ],
      [
        "m",
        "en"
      ],
      [
        "m",
        "anĠ"
      ],
      [
        "in",
        "Ġa"
      ],
      [
        "no",
        "bleĠ"
      ],
      [
        "wh",
        "enĠ"
      ],
      [
        "ligh",
        "tĠ"
      ],
      [
        "worl",
        "dĠ"
      ],
      [
        "vo",
        "ic"
      ],
      [
        "d",
        "own"
      ],
      [
        "e",
        "-"
      ],
      [
        "g",
        "y"
      ],
      [
        "y",
        "âĢĻsĠ"
      ],
      [
        "sĠ",
        "of"
      ],
      [
        "sĠ",
        "thatĠ"
      ],
      [
        ",Ġ",
        "thatĠ"
      ],
      [
        "you",
        ".ĊĊ"
      ],
      [
        "ĠtheĠ",
        "b"
      ],
      [
        "Th",
        "ou"
      ],
      [
        "ee",
        "k"
      ],
      [
        "it",
        ",Ġ"
      ],
      [
        "at",
        "ra"
      ],
      [
        "ĊĠĠĠĠ",
        "ĠĠ"
      ],
      [
        "AR",
        "T"
      ],
      [
        "Ġhim",
        "Ġ"
      ],
      [
        "op",
        "atra"
      ],
      [
        "E",
        "gy"
      ],
      [
        "c",
        "er"
      ],
      [
        "e",
        "!Ġ"
      ],
      [
        "g",
        "g"
      ],
      [
        "k",
        "ind"
      ],
      [
        "on",
        "dĠ"
      ],
      [
        "esĠ",
        "andĠ"
      ],
      [
        "lov",
        "e,Ġ"
      ],
      [
        "IZ",
        "EN"
      ],
      [
        "IT",
        "IZEN"
      ],
      [
        ";",
        "ĠbutĠ"
      ],
      [
        "A",
        "ll"
      ],
      [
        "L",
        "OWN"
      ],
      [
        "e",
        "âĢĶ"
      ],
      [
        "v",
        "a"
      ],
      [
        "th",
        "ereĠ"
      ],
      [
        "th",
        "eseĠ"
      ],
      [
        "sĠ",
        "areĠ"
      ],
      [
        "an",
        "n"
      ],
      [
        "Th",
        "enĠ"
      ],
      [
        "ol",
        "yĠ"
      ],
      [
        "your",
        "Ġh"
      ],
      [
        "ti",
        "onĠ"
      ],
      [
        "par",
        "tĠ"
      ],
      [
        "Or",
        "Ġ"
      ],
      [
        "-----",
        "+"
      ],
      [
        "!",
        "ĊâĢĥ"
      ],
      [
        "A",
        "y,Ġ"
      ],
      [
        "\\",
        "!ĊâĢĥ"
      ],
      [
        "a",
        "Ġw"
      ],
      [
        "a",
        "Ġb"
      ],
      [
        "a",
        "keĠ"
      ],
      [
        "l",
        "y"
      ],
      [
        "l",
        "ess"
      ],
      [
        "s",
        "ir"
      ],
      [
        "s",
        "ay"
      ],
      [
        "t",
        "urn"
      ],
      [
        "Ċ",
        "|Ġ"
      ],
      [
        "in",
        "t"
      ],
      [
        "es",
        ",Ċ"
      ],
      [
        "âĢĻ",
        "d"
      ],
      [
        "ear",
        "th"
      ],
      [
        "us",
        "b"
      ],
      [
        "ag",
        "eĠ"
      ],
      [
        "answ",
        "er"
      ],
      [
        "oldi",
        "er"
      ],
      [
        "LOWN",
        ".Ċ"
      ],
      [
        "D",
        "oĠ"
      ],
      [
        "V",
        "EN"
      ],
      [
        "h",
        "ereĠ"
      ],
      [
        "on",
        "lyĠ"
      ],
      [
        ".Ġ",
        "ButĠ"
      ],
      [
        "toĠ",
        "b"
      ],
      [
        "no",
        "thing"
      ],
      [
        "for",
        "th"
      ],
      [
        "ck",
        "Ġ"
      ],
      [
        "do",
        "th"
      ],
      [
        "Ġma",
        "keĠ"
      ],
      [
        "ori",
        "ol"
      ],
      [
        "c",
        "or"
      ],
      [
        "d",
        "raw"
      ],
      [
        "f",
        "ur"
      ],
      [
        "h",
        "our"
      ],
      [
        "k",
        "en"
      ],
      [
        "s",
        "k"
      ],
      [
        "u",
        "c"
      ],
      [
        "w",
        "ar"
      ],
      [
        "Ġa",
        "l"
      ],
      [
        "Wh",
        "ich"
      ],
      [
        "âĢĶ",
        "Ċ"
      ],
      [
        "AR",
        "M"
      ],
      [
        "Ġst",
        "r"
      ],
      [
        "|Ċ",
        "+----"
      ],
      [
        "C",
        "oriol"
      ],
      [
        "P",
        "ar"
      ],
      [
        "e",
        "!ĊĊ"
      ],
      [
        "m",
        "b"
      ],
      [
        "m",
        "on"
      ],
      [
        "o",
        "ll"
      ],
      [
        "s",
        "ĊâĢĥ"
      ],
      [
        "Ġs",
        "heĠ"
      ],
      [
        "Ġa",
        "llĠ"
      ],
      [
        "ch",
        "o"
      ],
      [
        "e,Ġ",
        "theĠ"
      ],
      [
        "ol",
        "a"
      ],
      [
        "ca",
        "useĠ"
      ],
      [
        "ev",
        "en"
      ],
      [
        "ex",
        "c"
      ],
      [
        "tru",
        "th"
      ],
      [
        "ew",
        "ell"
      ],
      [
        "ItĠ",
        "isĠ"
      ],
      [
        "pas",
        "s"
      ],
      [
        "_.]",
        "Ġ"
      ],
      [
        "J",
        "A"
      ],
      [
        "g",
        "re"
      ],
      [
        "p",
        "Ġ"
      ],
      [
        "ear",
        "n"
      ],
      [
        "el",
        "Ġ"
      ],
      [
        "ed",
        ".ĊĊ"
      ],
      [
        "sel",
        "vesĠ"
      ],
      [
        "OR",
        ".Ċ"
      ],
      [
        "ES",
        "S"
      ],
      [
        "ad",
        "eĠ"
      ],
      [
        "str",
        "ong"
      ],
      [
        "ati",
        "onĠ"
      ],
      [
        "nat",
        "ur"
      ],
      [
        "Q",
        "U"
      ],
      [
        "W",
        "illĠ"
      ],
      [
        "a",
        "ugh"
      ],
      [
        "d",
        "eĠ"
      ],
      [
        "i",
        "st"
      ],
      [
        "l",
        "y,Ġ"
      ],
      [
        "p",
        "tĠ"
      ],
      [
        "p",
        "utĠ"
      ],
      [
        "th",
        "ink"
      ],
      [
        "in",
        "ĠhisĠ"
      ],
      [
        "ing",
        "Ġm"
      ],
      [
        "Ġa",
        "Ġs"
      ],
      [
        "re",
        "eĠ"
      ],
      [
        "your",
        "Ġp"
      ],
      [
        "eĠw",
        "ill"
      ],
      [
        "be",
        "foreĠ"
      ],
      [
        "str",
        "ess"
      ],
      [
        "JA",
        "QU"
      ],
      [
        "I",
        "Ġb"
      ],
      [
        "d",
        "ec"
      ],
      [
        "f",
        "oo"
      ],
      [
        "i",
        "âĢĻ"
      ],
      [
        "p",
        "ower"
      ],
      [
        "s",
        "er"
      ],
      [
        "th",
        "anĠ"
      ],
      [
        "in",
        "Ġm"
      ],
      [
        "in",
        "toĠ"
      ],
      [
        "an",
        "other"
      ],
      [
        ",Ċ",
        "ToĠ"
      ],
      [
        "Ġs",
        "hall"
      ],
      [
        ".Ġ",
        "AĠ"
      ],
      [
        "li",
        "veĠ"
      ],
      [
        "us",
        ".ĊĊ"
      ],
      [
        "to",
        "ge"
      ],
      [
        "ma",
        "ster"
      ],
      [
        "hon",
        "our"
      ],
      [
        "b",
        "od"
      ],
      [
        "d",
        "ou"
      ],
      [
        "h",
        "um"
      ],
      [
        "i",
        "ceĠ"
      ],
      [
        "m",
        "uch"
      ],
      [
        "r",
        "un"
      ],
      [
        "t",
        "ear"
      ],
      [
        "|",
        "ĠĠĠĠ"
      ],
      [
        "ea",
        "th"
      ],
      [
        "edĠ",
        "andĠ"
      ],
      [
        "it",
        "y"
      ],
      [
        "ra",
        "c"
      ],
      [
        "la",
        "stĠ"
      ],
      [
        "ti",
        "llĠ"
      ],
      [
        "eĠs",
        "hall"
      ],
      [
        "heĠ",
        "isĠ"
      ],
      [
        ",ĊĠĠĠĠ",
        "Ġ"
      ],
      [
        "su",
        "ch"
      ],
      [
        "aw",
        "ay"
      ],
      [
        "vir",
        "tu"
      ],
      [
        "F",
        "r"
      ],
      [
        "G",
        "oĠ"
      ],
      [
        "G",
        "ER.Ċ"
      ],
      [
        "M",
        "ESS"
      ],
      [
        "c",
        "lo"
      ],
      [
        "n",
        "orĠ"
      ],
      [
        "th",
        "enĠ"
      ],
      [
        ",Ġ",
        "for"
      ],
      [
        "or",
        "tĠ"
      ],
      [
        "Th",
        "ough"
      ],
      [
        "Ġh",
        "on"
      ],
      [
        "EN",
        "GER.Ċ"
      ],
      [
        "et",
        "er"
      ],
      [
        "con",
        "f"
      ],
      [
        "dea",
        "d"
      ],
      [
        "No",
        ",Ġ"
      ],
      [
        "orr",
        "ow"
      ],
      [
        "h",
        "ow"
      ],
      [
        "n",
        "ightĠ"
      ],
      [
        "p",
        "ain"
      ],
      [
        "th",
        "r"
      ],
      [
        "Ġth",
        "at"
      ],
      [
        "of",
        "Ġw"
      ],
      [
        "you",
        "th"
      ],
      [
        "la",
        "w"
      ],
      [
        "di",
        "v"
      ],
      [
        "be",
        "en"
      ],
      [
        "IĠw",
        "asĠ"
      ],
      [
        "ish",
        "Ġ"
      ],
      [
        "god",
        "sĠ"
      ],
      [
        "A",
        "B"
      ],
      [
        "A",
        "h"
      ],
      [
        "e",
        ";"
      ],
      [
        "h",
        "oldĠ"
      ],
      [
        "k",
        "ill"
      ],
      [
        "t",
        "y"
      ],
      [
        "ou",
        "dĠ"
      ],
      [
        "ee",
        "m"
      ],
      [
        "._",
        "ĊĊ"
      ],
      [
        "po",
        "or"
      ],
      [
        "cr",
        "own"
      ],
      [
        "IĠm",
        "ustĠ"
      ],
      [
        "A",
        "d"
      ],
      [
        "V",
        "OL"
      ],
      [
        "d",
        "ayĠ"
      ],
      [
        "e",
        "enĠ"
      ],
      [
        "e",
        "!ĊĠĠĠĠ"
      ],
      [
        "l",
        "edĠ"
      ],
      [
        "r",
        "est"
      ],
      [
        "s",
        ",ĊĠĠĠĠ"
      ],
      [
        "s",
        "erv"
      ],
      [
        "y",
        "self"
      ],
      [
        "Ġth",
        "anĠ"
      ],
      [
        "en",
        "ough"
      ],
      [
        "on",
        ",Ġ"
      ],
      [
        "Ġm",
        "e,Ġ"
      ],
      [
        "Ġm",
        "oreĠ"
      ],
      [
        "theĠ",
        "w"
      ],
      [
        "st",
        ",Ġ"
      ],
      [
        "li",
        "e"
      ],
      [
        "li",
        "sh"
      ],
      [
        "Ġb",
        "et"
      ],
      [
        "is",
        "Ċ"
      ],
      [
        "ri",
        "a"
      ],
      [
        "ed",
        ".Ġ"
      ],
      [
        "eĠw",
        "or"
      ],
      [
        "loo",
        "kĠ"
      ],
      [
        "na",
        "meĠ"
      ],
      [
        "eun",
        "tĠ"
      ],
      [
        "happ",
        "yĠ"
      ],
      [
        "I",
        ".Ġ"
      ],
      [
        "b",
        "orn"
      ],
      [
        "d",
        "eed"
      ],
      [
        "e",
        ";Ġ"
      ],
      [
        "f",
        "al"
      ],
      [
        "s",
        "ĊĠĠĠĠ"
      ],
      [
        "s",
        "!Ġ"
      ],
      [
        "y",
        "s"
      ],
      [
        "y",
        "et"
      ],
      [
        "th",
        "rough"
      ],
      [
        "en",
        "i"
      ],
      [
        "en",
        "er"
      ],
      [
        "on",
        "ceĠ"
      ],
      [
        "Ġw",
        "ill"
      ],
      [
        "toĠ",
        "m"
      ],
      [
        "Th",
        "en"
      ],
      [
        "no",
        "bl"
      ],
      [
        "for",
        "ĠmyĠ"
      ],
      [
        "IĠ",
        "prayĠ"
      ],
      [
        "il",
        "tĠ"
      ],
      [
        "your",
        "Ġb"
      ],
      [
        "ful",
        "Ġ"
      ],
      [
        "worl",
        "d"
      ],
      [
        "gent",
        "l"
      ],
      [
        "bro",
        "ther"
      ],
      [
        "D",
        "rom"
      ],
      [
        "E",
        "Y.Ċ"
      ],
      [
        "U",
        "M"
      ],
      [
        "W",
        "hat"
      ],
      [
        "a",
        "ch"
      ],
      [
        "e",
        ";Ċ"
      ],
      [
        "l",
        "ed"
      ],
      [
        "r",
        "yĠ"
      ],
      [
        "u",
        "ck"
      ],
      [
        "en",
        "s"
      ],
      [
        "ow",
        "erĠ"
      ],
      [
        "Ġa",
        "c"
      ],
      [
        "im",
        "p"
      ],
      [
        "myĠ",
        "lord"
      ],
      [
        "fa",
        "ceĠ"
      ],
      [
        "âĢĶ",
        "ĊĊ"
      ],
      [
        "ta",
        "inĠ"
      ],
      [
        "pr",
        "ess"
      ],
      [
        "En",
        "ter"
      ],
      [
        "pla",
        "c"
      ],
      [
        "eĠwith",
        "Ġ"
      ],
      [
        "fu",
        "ll"
      ],
      [
        "Our",
        "Ġ"
      ],
      [
        "CT",
        "Ġ"
      ],
      [
        "Drom",
        "i"
      ],
      [
        ".",
        "."
      ],
      [
        "E",
        "ĠS"
      ],
      [
        "R",
        "I"
      ],
      [
        "R",
        "o"
      ],
      [
        "d",
        "eep"
      ],
      [
        "g",
        "ood"
      ],
      [
        "h",
        "owĠ"
      ],
      [
        "m",
        "uchĠ"
      ],
      [
        "r",
        "is"
      ],
      [
        "u",
        "t,Ġ"
      ],
      [
        "w",
        "eep"
      ],
      [
        "in",
        "ess"
      ],
      [
        ".ĊĊ",
        "1"
      ],
      [
        "Ġw",
        "ouldĠ"
      ],
      [
        "rea",
        "son"
      ],
      [
        "fa",
        "irĠ"
      ],
      [
        "Ġp",
        "o"
      ],
      [
        "ev",
        "enĠ"
      ],
      [
        "likeĠ",
        "aĠ"
      ],
      [
        "foll",
        "ow"
      ],
      [
        "Well",
        ",Ġ"
      ],
      [
        "VEN",
        "US.Ċ"
      ],
      [
        "e",
        "edĠ"
      ],
      [
        "k",
        "ingĠ"
      ],
      [
        "k",
        "new"
      ],
      [
        "n",
        "ear"
      ],
      [
        "t",
        "ouch"
      ],
      [
        "Ċ",
        "S"
      ],
      [
        ",Ċ",
        "ButĠ"
      ],
      [
        "Ġs",
        "hallĠ"
      ],
      [
        "Ġw",
        "ereĠ"
      ],
      [
        "Ġa",
        "gain"
      ],
      [
        "Th",
        "er"
      ],
      [
        "st",
        "andĠ"
      ],
      [
        "st",
        "ri"
      ],
      [
        "li",
        "k"
      ],
      [
        "it",
        "t"
      ],
      [
        "it",
        "ion"
      ],
      [
        "eĠw",
        "illĠ"
      ],
      [
        "ver",
        "s"
      ],
      [
        "sh",
        "ow"
      ],
      [
        "ĠS",
        "ceneĠ"
      ],
      [
        "su",
        "b"
      ],
      [
        ":Ċ",
        "ĠĠ"
      ],
      [
        "ugh",
        "tĠ"
      ],
      [
        "arr",
        "yĠ"
      ],
      [
        "ret",
        "urn"
      ],
      [
        "Al",
        "ex"
      ],
      [
        "H",
        "el"
      ],
      [
        "L",
        "ola"
      ],
      [
        "U",
        "p"
      ],
      [
        "d",
        "erĠ"
      ],
      [
        "f",
        "tĠ"
      ],
      [
        "h",
        "om"
      ],
      [
        "h",
        "igh"
      ],
      [
        "h",
        "old"
      ],
      [
        "k",
        "na"
      ],
      [
        "s",
        "ea"
      ],
      [
        "v",
        "e,Ġ"
      ],
      [
        "w",
        "ayĠ"
      ],
      [
        "eĠ",
        "ofĠ"
      ],
      [
        "ou",
        "seĠ"
      ],
      [
        "er",
        ",Ġ"
      ],
      [
        "an",
        "y"
      ],
      [
        "Ġth",
        "eĊ"
      ],
      [
        "isĠ",
        "notĠ"
      ],
      [
        "Ġm",
        "ostĠ"
      ],
      [
        "Ġw",
        "ord"
      ],
      [
        "theĠ",
        "m"
      ],
      [
        "st",
        "ar"
      ],
      [
        "IĠ",
        "loveĠ"
      ],
      [
        "la",
        "yĠ"
      ],
      [
        "fa",
        "ul"
      ],
      [
        "com",
        "e,Ġ"
      ],
      [
        "ess",
        "eng"
      ],
      [
        "AL",
        "L"
      ],
      [
        "me",
        "an"
      ],
      [
        "ff",
        "er"
      ],
      [
        "righ",
        "tĠ"
      ],
      [
        "mar",
        "ri"
      ],
      [
        "VOL",
        "UM"
      ],
      [
        "VOLUM",
        "N"
      ],
      [
        ";",
        "ĠtheĠ"
      ],
      [
        "B",
        "ERTRA"
      ],
      [
        "S",
        "p"
      ],
      [
        "U",
        "C"
      ],
      [
        "b",
        "eĠs"
      ],
      [
        "h",
        "Ã"
      ],
      [
        "i",
        "ousĠ"
      ],
      [
        "t",
        "end"
      ],
      [
        "w",
        "ellĠ"
      ],
      [
        "y",
        "ear"
      ],
      [
        "¤",
        "us"
      ],
      [
        "yĠ",
        "ofĠ"
      ],
      [
        "Ġth",
        "en"
      ],
      [
        "theĠ",
        "b"
      ],
      [
        "st",
        "and"
      ],
      [
        "atĠ",
        "theĠ"
      ],
      [
        "IĠ",
        "hadĠ"
      ],
      [
        "ra",
        "in"
      ],
      [
        "e,Ċ",
        "ĠĠ"
      ],
      [
        "eĠw",
        "eĠ"
      ],
      [
        "ca",
        "meĠ"
      ],
      [
        "ec",
        "re"
      ],
      [
        "loo",
        "dĠ"
      ],
      [
        "see",
        "m"
      ],
      [
        "Ar",
        "eĠ"
      ],
      [
        ":",
        "ĊĠĠĠĠ"
      ],
      [
        "A",
        "CTĠ"
      ],
      [
        "C",
        "oun"
      ],
      [
        "H",
        "ereĠ"
      ],
      [
        "S",
        "ECOND"
      ],
      [
        "T",
        "ann"
      ],
      [
        "c",
        "ess"
      ],
      [
        "d",
        "ark"
      ],
      [
        "f",
        "ea"
      ],
      [
        "i",
        "esĠ"
      ],
      [
        "l",
        "ow"
      ],
      [
        "n",
        "oneĠ"
      ],
      [
        "Ċ",
        "Of"
      ],
      [
        "Ġ",
        "notĠ"
      ],
      [
        ".Ċ",
        "TheĠ"
      ],
      [
        "of",
        "Ċ"
      ],
      [
        "Ġs",
        "a"
      ],
      [
        "ea",
        "ch"
      ],
      [
        "st",
        "erĠ"
      ],
      [
        "re",
        "w"
      ],
      [
        "em",
        "ber"
      ],
      [
        "wh",
        "ereĠ"
      ],
      [
        "and",
        ",Ġ"
      ],
      [
        "usĠ",
        "andĠ"
      ],
      [
        "noĠ",
        "mor"
      ],
      [
        "pl",
        "ea"
      ],
      [
        "do",
        "esĠ"
      ],
      [
        "Li",
        "keĠ"
      ],
      [
        "hÃ",
        "¤us"
      ],
      [
        ";",
        "ĊâĢĥ"
      ],
      [
        "C",
        "on"
      ],
      [
        "E",
        "D"
      ],
      [
        "S",
        "IC"
      ],
      [
        "T",
        "ru"
      ],
      [
        "a",
        "Ċ"
      ],
      [
        "a",
        ",Ġ"
      ],
      [
        "h",
        "ous"
      ],
      [
        "n",
        "er"
      ],
      [
        "s",
        "ol"
      ],
      [
        "s",
        "id"
      ],
      [
        "t",
        "ellĠ"
      ],
      [
        "v",
        "is"
      ],
      [
        "w",
        "ear"
      ],
      [
        "an",
        "k"
      ],
      [
        "Ġth",
        "ineĠ"
      ],
      [
        "es",
        "h"
      ],
      [
        ".ĊĊ",
        "[_"
      ],
      [
        "ith",
        "erĠ"
      ],
      [
        "lo",
        "ver"
      ],
      [
        "An",
        "ti"
      ],
      [
        "re",
        "ce"
      ],
      [
        "thou",
        "Ġs"
      ],
      [
        "ut",
        "ter"
      ],
      [
        "fl",
        "ower"
      ],
      [
        "Ġhea",
        "ven"
      ],
      [
        "F",
        "ar"
      ],
      [
        "N",
        "orĠ"
      ],
      [
        "P",
        "om"
      ],
      [
        "a",
        "Ġh"
      ],
      [
        "a",
        "bleĠ"
      ],
      [
        "c",
        "ru"
      ],
      [
        "d",
        "oneĠ"
      ],
      [
        "f",
        "la"
      ],
      [
        "i",
        "el"
      ],
      [
        "p",
        "it"
      ],
      [
        "s",
        "un"
      ],
      [
        "Ċ",
        "M"
      ],
      [
        "Ċ",
        "ĠĠ"
      ],
      [
        "on",
        "der"
      ],
      [
        "Ġa",
        "b"
      ],
      [
        "Ġh",
        "op"
      ],
      [
        "li",
        "s"
      ],
      [
        "li",
        "ver"
      ],
      [
        "is",
        ",Ġ"
      ],
      [
        "em",
        "p"
      ],
      [
        "rea",
        "t"
      ],
      [
        "fa",
        "ith"
      ],
      [
        "wor",
        "d"
      ],
      [
        "know",
        "n"
      ],
      [
        "gra",
        "c"
      ],
      [
        "On",
        "eĠ"
      ],
      [
        "wom",
        "an"
      ],
      [
        "IĠth",
        "ink"
      ],
      [
        "L",
        "UC"
      ],
      [
        "M",
        "ART"
      ],
      [
        "f",
        "oundĠ"
      ],
      [
        "g",
        "etĠ"
      ],
      [
        "h",
        "or"
      ],
      [
        "m",
        "ightĠ"
      ],
      [
        "r",
        "ingĠ"
      ],
      [
        "v",
        "el"
      ],
      [
        "Ġ",
        "inĠ"
      ],
      [
        "ar",
        "t"
      ],
      [
        "ha",
        "t,Ġ"
      ],
      [
        "ea",
        "c"
      ],
      [
        "ea",
        "tĠ"
      ],
      [
        "Ġm",
        "o"
      ],
      [
        "Ġw",
        "illĠ"
      ],
      [
        "is",
        "on"
      ],
      [
        "our",
        "Ġs"
      ],
      [
        "oul",
        "dstĠ"
      ],
      [
        "wh",
        "oĠ"
      ],
      [
        "and",
        "ria"
      ],
      [
        "!ĊĊ",
        "TAN"
      ],
      [
        "thĠ",
        "andĠ"
      ],
      [
        "qu",
        "ick"
      ],
      [
        "man",
        "yĠ"
      ],
      [
        "Or",
        "land"
      ],
      [
        ".âĢĿ",
        "ĊĊ"
      ],
      [
        "Ro",
        "omĠ"
      ],
      [
        "!",
        "âĢĶ"
      ],
      [
        "C",
        "omeĠ"
      ],
      [
        "D",
        "IANA.Ċ"
      ],
      [
        "G",
        "iveĠ"
      ],
      [
        "a",
        "st"
      ],
      [
        "c",
        "la"
      ],
      [
        "e",
        "?Ċ"
      ],
      [
        "g",
        "at"
      ],
      [
        "i",
        "onĠ"
      ],
      [
        "l",
        "ing"
      ],
      [
        "t",
        "or"
      ],
      [
        "Ċ",
        "D"
      ],
      [
        "th",
        "usĠ"
      ],
      [
        "Ġth",
        "ough"
      ],
      [
        "en",
        "ch"
      ],
      [
        "of",
        "ĠthyĠ"
      ],
      [
        "Ġm",
        "ineĠ"
      ],
      [
        "Ġa",
        "pp"
      ],
      [
        "il",
        "yĠ"
      ],
      [
        "ru",
        "m"
      ],
      [
        "do",
        "thĠ"
      ],
      [
        "grea",
        "t"
      ],
      [
        "letĠ",
        "meĠ"
      ],
      [
        "hea",
        "d"
      ],
      [
        "OM",
        "P"
      ],
      [
        "fell",
        "ow"
      ],
      [
        "A",
        "DR"
      ],
      [
        "F",
        "lor"
      ],
      [
        "P",
        "ra"
      ],
      [
        "a",
        "bl"
      ],
      [
        "e",
        "b"
      ],
      [
        "e",
        "qu"
      ],
      [
        "f",
        "ter"
      ],
      [
        "h",
        "un"
      ],
      [
        "i",
        "x"
      ],
      [
        "Ċ",
        "AsĠ"
      ],
      [
        "in",
        "Ċ"
      ],
      [
        "of",
        "tĠ"
      ],
      [
        "Ġw",
        "ar"
      ],
      [
        "Th",
        "ere"
      ],
      [
        "theĠ",
        "d"
      ],
      [
        "it",
        "._]ĊĊ"
      ],
      [
        "eĊ",
        "ThatĠ"
      ],
      [
        "eĊ",
        "ToĠ"
      ],
      [
        "Wh",
        "ichĠ"
      ],
      [
        "be",
        "ingĠ"
      ],
      [
        "am",
        "Ġ"
      ],
      [
        "qu",
        "een"
      ],
      [
        "pl",
        "eĠ"
      ],
      [
        "IĠs",
        "eeĠ"
      ],
      [
        "gr",
        "ow"
      ],
      [
        "LetĠ",
        "meĠ"
      ],
      [
        "coun",
        "tr"
      ],
      [
        "co",
        "ver"
      ],
      [
        "oâĢĻ",
        "er"
      ],
      [
        "gent",
        "leĠ"
      ],
      [
        "G",
        "RI"
      ],
      [
        "N",
        "owĠ"
      ],
      [
        "P",
        "OMP"
      ],
      [
        "T",
        "im"
      ],
      [
        "T",
        "akeĠ"
      ],
      [
        "W",
        "asĠ"
      ],
      [
        "g",
        "lor"
      ],
      [
        "h",
        "usb"
      ],
      [
        "m",
        "other"
      ],
      [
        "w",
        "in"
      ],
      [
        "Ġ",
        "youĠ"
      ],
      [
        ",Ġ",
        "asĠ"
      ],
      [
        "ou",
        "th"
      ],
      [
        "in",
        "st"
      ],
      [
        "Ġth",
        "ere"
      ],
      [
        "Ġs",
        "uch"
      ],
      [
        "lo",
        "seĠ"
      ],
      [
        "ra",
        "g"
      ],
      [
        "AN",
        ".Ċ"
      ],
      [
        "Ġd",
        "es"
      ],
      [
        "him",
        "self"
      ],
      [
        "qu",
        "es"
      ],
      [
        "[_",
        "ToĠ"
      ],
      [
        "them",
        "Ġ"
      ],
      [
        "ep",
        "her"
      ],
      [
        "Rom",
        "e.Ġ"
      ],
      [
        "Ch",
        "arm"
      ],
      [
        "let",
        "ter"
      ],
      [
        "bar",
        "b"
      ],
      [
        "E",
        "no"
      ],
      [
        "L",
        "ook"
      ],
      [
        "M",
        "en"
      ],
      [
        "M",
        "ostĠ"
      ],
      [
        "b",
        "un"
      ],
      [
        "b",
        "lood"
      ],
      [
        "e",
        "?Ġ"
      ],
      [
        "k",
        "e,Ġ"
      ],
      [
        "l",
        "esĠ"
      ],
      [
        "n",
        "eed"
      ],
      [
        "r",
        "ow"
      ],
      [
        "s",
        ";Ġ"
      ],
      [
        "s",
        "ureĠ"
      ],
      [
        "s",
        "leep"
      ],
      [
        "t",
        "ing"
      ],
      [
        "w",
        "o"
      ],
      [
        "sĠ",
        "in"
      ],
      [
        "dĠ",
        "ofĠ"
      ],
      [
        ".Ċ",
        "âĢĥ"
      ],
      [
        ".Ċ",
        "ButĠ"
      ],
      [
        "Ġth",
        "oseĠ"
      ],
      [
        "en",
        "ce"
      ],
      [
        "of",
        "Ġb"
      ],
      [
        "Ġs",
        "o"
      ],
      [
        "Ġw",
        "r"
      ],
      [
        "Ġw",
        "ell"
      ],
      [
        "no",
        "therĠ"
      ],
      [
        "us",
        "ic"
      ],
      [
        "[_",
        "A"
      ],
      [
        "IĠs",
        "hall"
      ],
      [
        "ey",
        "es"
      ],
      [
        "fl",
        "esh"
      ],
      [
        "call",
        "edĠ"
      ],
      [
        "cour",
        "t"
      ],
      [
        "righ",
        "t"
      ],
      [
        "hal",
        "tĠ"
      ],
      [
        "Eno",
        "barb"
      ],
      [
        "N",
        "or"
      ],
      [
        "P",
        "a"
      ],
      [
        "Q",
        "u"
      ],
      [
        "S",
        "t"
      ],
      [
        "S",
        "heĠ"
      ],
      [
        "V",
        "ol"
      ],
      [
        "\\",
        "!ĊĊ"
      ],
      [
        "c",
        "ra"
      ],
      [
        "d",
        "om"
      ],
      [
        "f",
        "e"
      ],
      [
        "h",
        "eĠw"
      ],
      [
        "p",
        "en"
      ],
      [
        "eĠ",
        "toĠ"
      ],
      [
        "in",
        "essĠ"
      ],
      [
        "er",
        "c"
      ],
      [
        "er",
        "veĠ"
      ],
      [
        "of",
        "t"
      ],
      [
        "you",
        ".Ġ"
      ],
      [
        "Ġm",
        "in"
      ],
      [
        "Ġm",
        "ayĠ"
      ],
      [
        "Ġw",
        "om"
      ],
      [
        "Th",
        "eseĠ"
      ],
      [
        "st",
        "Ċ"
      ],
      [
        "no",
        "tĊ"
      ],
      [
        "at",
        "er"
      ],
      [
        "to",
        "Ċ"
      ],
      [
        "ma",
        "id"
      ],
      [
        ";Ċ",
        "AndĠ"
      ],
      [
        "hear",
        "dĠ"
      ],
      [
        "âĢĿ",
        "Ġ"
      ],
      [
        "ga",
        "veĠ"
      ],
      [
        "ci",
        "ousĠ"
      ],
      [
        "fu",
        "llĠ"
      ],
      [
        "cont",
        "ent"
      ],
      [
        "A",
        "tĠ"
      ],
      [
        "B",
        "ea"
      ],
      [
        "H",
        "erĠ"
      ],
      [
        "I",
        "Ċ"
      ],
      [
        "W",
        "or"
      ],
      [
        "b",
        "ur"
      ],
      [
        "c",
        "orn"
      ],
      [
        "e",
        "li"
      ],
      [
        "g",
        "la"
      ],
      [
        "g",
        "ener"
      ],
      [
        "h",
        "op"
      ],
      [
        "i",
        "es"
      ],
      [
        "i",
        "li"
      ],
      [
        "k",
        "n"
      ],
      [
        "l",
        "in"
      ],
      [
        "o",
        "a"
      ],
      [
        "p",
        "rom"
      ],
      [
        "sĠ",
        "with"
      ],
      [
        ",Ġ",
        "orĠ"
      ],
      [
        "Ġth",
        "er"
      ],
      [
        "andĠ",
        "s"
      ],
      [
        "ea",
        "d"
      ],
      [
        "ing",
        ".ĊĊ"
      ],
      [
        "for",
        "Ġa"
      ],
      [
        "ri",
        "d"
      ],
      [
        "com",
        "for"
      ],
      [
        "ay",
        "sĠ"
      ],
      [
        "be",
        "enĠ"
      ],
      [
        "OL",
        "IV"
      ],
      [
        "sp",
        "o"
      ],
      [
        "lov",
        "esĠ"
      ],
      [
        "IĠs",
        "h"
      ],
      [
        "as",
        "s"
      ],
      [
        "Be",
        "foreĠ"
      ],
      [
        ".ĊĊS",
        "IC"
      ],
      [
        "bet",
        "ter"
      ],
      [
        "ba",
        "ck"
      ],
      [
        "Lo",
        "veĠ"
      ],
      [
        "Du",
        "keĠ"
      ],
      [
        "eter",
        "n"
      ],
      [
        "ecre",
        "tĠ"
      ],
      [
        "S",
        "o"
      ],
      [
        "W",
        "ill"
      ],
      [
        "a",
        "ck"
      ],
      [
        "b",
        "es"
      ],
      [
        "c",
        "ri"
      ],
      [
        "j",
        "ud"
      ],
      [
        "n",
        "um"
      ],
      [
        "t",
        "om"
      ],
      [
        "v",
        "ill"
      ],
      [
        "th",
        "eĊ"
      ],
      [
        "on",
        "e,Ġ"
      ],
      [
        "ha",
        "ir"
      ],
      [
        "Ġs",
        "ha"
      ],
      [
        "el",
        "seĠ"
      ],
      [
        "your",
        "Ġd"
      ],
      [
        "eĊ",
        "TheĠ"
      ],
      [
        "e,Ċ",
        "âĢĥ"
      ],
      [
        "et",
        "âĢĻsĠ"
      ],
      [
        "eĠs",
        "oĠ"
      ],
      [
        "ind",
        "eed"
      ],
      [
        "ey",
        "eĠ"
      ],
      [
        "ang",
        "er"
      ],
      [
        "fri",
        "endĠ"
      ],
      [
        "CH",
        "ARM"
      ],
      [
        "af",
        "ter"
      ],
      [
        "b",
        "estĠ"
      ],
      [
        "d",
        "em"
      ],
      [
        "d",
        "ream"
      ],
      [
        "e",
        "th"
      ],
      [
        "f",
        "ra"
      ],
      [
        "f",
        "eel"
      ],
      [
        "i",
        "a"
      ],
      [
        "j",
        "est"
      ],
      [
        "l",
        "earn"
      ],
      [
        "m",
        "is"
      ],
      [
        "r",
        "edĠ"
      ],
      [
        "s",
        "m"
      ],
      [
        "v",
        "edĠ"
      ],
      [
        "w",
        "een"
      ],
      [
        "th",
        "is"
      ],
      [
        "in",
        "ĠthyĠ"
      ],
      [
        ".ĊĊ",
        "TOU"
      ],
      [
        "of",
        "ĠaĠ"
      ],
      [
        "you",
        "Ċ"
      ],
      [
        "ing",
        "Ġa"
      ],
      [
        "Th",
        "usĠ"
      ],
      [
        "Ġh",
        "om"
      ],
      [
        "ee",
        ",Ġ"
      ],
      [
        "it",
        "Ċ"
      ],
      [
        "it",
        "ch"
      ],
      [
        "ed",
        ".Ċ"
      ],
      [
        "Wh",
        "oseĠ"
      ],
      [
        "di",
        "st"
      ],
      [
        "be",
        "g"
      ],
      [
        "Ġp",
        "er"
      ],
      [
        "lov",
        "edĠ"
      ],
      [
        "byĠ",
        "theĠ"
      ],
      [
        "per",
        "f"
      ],
      [
        "enc",
        "e,Ġ"
      ],
      [
        "Anton",
        "y"
      ],
      [
        "Anton",
        "yĠ"
      ],
      [
        ".ĊĊA",
        "DR"
      ],
      [
        "F",
        "a"
      ],
      [
        "S",
        "y"
      ],
      [
        "b",
        "id"
      ],
      [
        "c",
        "at"
      ],
      [
        "c",
        "ol"
      ],
      [
        "f",
        "ind"
      ],
      [
        "k",
        "edĠ"
      ],
      [
        "Ġ",
        "G"
      ],
      [
        "ou",
        "d"
      ],
      [
        "er",
        "yĠ"
      ],
      [
        "an",
        "Ġa"
      ],
      [
        "en",
        "em"
      ],
      [
        "ar",
        "yĠ"
      ],
      [
        ",Ċ",
        "A"
      ],
      [
        ",Ċ",
        "AsĠ"
      ],
      [
        "toĠ",
        "hisĠ"
      ],
      [
        "ra",
        "ther"
      ],
      [
        "il",
        "d"
      ],
      [
        "ma",
        "kesĠ"
      ],
      [
        "rea",
        "tĠ"
      ],
      [
        "et",
        "sĠ"
      ],
      [
        "eĠs",
        "p"
      ],
      [
        ";Ġ",
        "for"
      ],
      [
        "know",
        "Ġ"
      ],
      [
        "doĠ",
        "notĠ"
      ],
      [
        "le",
        "ftĠ"
      ],
      [
        "Ġthem",
        "Ġ"
      ],
      [
        "gra",
        "ceĠ"
      ],
      [
        "br",
        "ing"
      ],
      [
        "Ġhear",
        "t"
      ],
      [
        "bea",
        "utyĠ"
      ],
      [
        "vir",
        "gin"
      ],
      [
        "dou",
        "b"
      ],
      [
        "A",
        "llĠ"
      ],
      [
        "B",
        "er"
      ],
      [
        "B",
        "ut,Ġ"
      ],
      [
        "L",
        "if"
      ],
      [
        "P",
        "ho"
      ],
      [
        "R",
        "a"
      ],
      [
        "V",
        "en"
      ],
      [
        "W",
        "ereĠ"
      ],
      [
        "b",
        "lack"
      ],
      [
        "h",
        "Ġ"
      ],
      [
        "l",
        "ar"
      ],
      [
        "m",
        "entĠ"
      ],
      [
        "p",
        "owerĠ"
      ],
      [
        "s",
        "etĠ"
      ],
      [
        "s",
        ",ĊAndĠ"
      ],
      [
        "t",
        "ro"
      ],
      [
        "v",
        "al"
      ],
      [
        ",Ġ",
        "aĠ"
      ],
      [
        "in",
        "f"
      ],
      [
        "er",
        "Ġthan"
      ],
      [
        "Ġm",
        "ustĠ"
      ],
      [
        ".Ġ",
        "HeĠ"
      ],
      [
        "Ġh",
        "ow"
      ],
      [
        "ch",
        "e"
      ],
      [
        "ir",
        "eĠ"
      ],
      [
        "Ġb",
        "ro"
      ],
      [
        "IĠ",
        "didĠ"
      ],
      [
        "el",
        "comeĠ"
      ],
      [
        "la",
        "st"
      ],
      [
        "to",
        "ĠthyĠ"
      ],
      [
        "ent",
        "sĠ"
      ],
      [
        "Ġwh",
        "enĠ"
      ],
      [
        "po",
        "orĠ"
      ],
      [
        "MEN",
        "AS.Ċ"
      ],
      [
        "bet",
        "terĠ"
      ],
      [
        "brea",
        "th"
      ],
      [
        "ret",
        "ch"
      ],
      [
        "Now",
        ",Ġ"
      ],
      [
        "augh",
        "ter"
      ],
      [
        "bod",
        "yĠ"
      ],
      [
        "Ber",
        "tra"
      ],
      [
        "E",
        "ven"
      ],
      [
        "E",
        "ros"
      ],
      [
        "I",
        "s"
      ],
      [
        "L",
        "ord"
      ],
      [
        "W",
        "ouldĠ"
      ],
      [
        "W",
        "hat,Ġ"
      ],
      [
        "b",
        "os"
      ],
      [
        "d",
        "in"
      ],
      [
        "d",
        "am"
      ],
      [
        "e",
        ".ĊĠĠĠĠ"
      ],
      [
        "l",
        "at"
      ],
      [
        "m",
        "eĊ"
      ],
      [
        "m",
        "atter"
      ],
      [
        "n",
        "ing"
      ],
      [
        "p",
        "al"
      ],
      [
        "s",
        "ill"
      ],
      [
        "s",
        ";Ċ"
      ],
      [
        "t",
        "oldĠ"
      ],
      [
        "v",
        "an"
      ],
      [
        "sĠ",
        "hisĠ"
      ],
      [
        "dĠ",
        "andĠ"
      ],
      [
        "er",
        "r"
      ],
      [
        "on",
        "ĠmyĠ"
      ],
      [
        "isĠ",
        "aĠ"
      ],
      [
        "ĠtheĠ",
        "w"
      ],
      [
        "toĠ",
        "him"
      ],
      [
        "it",
        ".Ġ"
      ],
      [
        "it",
        "self"
      ],
      [
        "im",
        "ag"
      ],
      [
        "re",
        "ma"
      ],
      [
        "itĠ",
        "wasĠ"
      ],
      [
        "your",
        "Ġm"
      ],
      [
        "eĠw",
        "ereĠ"
      ],
      [
        "Wh",
        "ere"
      ],
      [
        "EN",
        "I"
      ],
      [
        "ro",
        "p"
      ],
      [
        "ent",
        "er"
      ],
      [
        "igh",
        "t,Ġ"
      ],
      [
        "ca",
        "us"
      ],
      [
        "ne",
        "âĢĻ"
      ],
      [
        ".ĊĊC",
        "OM"
      ],
      [
        "For",
        "tun"
      ],
      [
        "II",
        ".Ġ"
      ],
      [
        "pa",
        "lac"
      ],
      [
        "pra",
        "y"
      ],
      [
        "hea",
        "ven"
      ],
      [
        "Ġsp",
        "eak"
      ],
      [
        "IĠm",
        "ayĠ"
      ],
      [
        "bea",
        "ut"
      ],
      [
        "long",
        "Ġ"
      ],
      [
        "Ma",
        "keĠ"
      ],
      [
        "D",
        "o"
      ],
      [
        "O",
        "c"
      ],
      [
        "P",
        "ID"
      ],
      [
        "S",
        "ir,Ġ"
      ],
      [
        "g",
        "oldĠ"
      ],
      [
        "m",
        "enĠ"
      ],
      [
        "r",
        "at"
      ],
      [
        "t",
        "rea"
      ],
      [
        "t",
        "rem"
      ],
      [
        "u",
        "ll"
      ],
      [
        ".Ċ",
        "A"
      ],
      [
        "an",
        "tsĠ"
      ],
      [
        "or",
        "sĠ"
      ],
      [
        "or",
        ",Ġ"
      ],
      [
        "of",
        "Ġh"
      ],
      [
        "st",
        "ic"
      ],
      [
        "edĠ",
        "inĠ"
      ],
      [
        "ch",
        "ang"
      ],
      [
        "it",
        "y,Ġ"
      ],
      [
        "lo",
        "ck"
      ],
      [
        "ol",
        "eĠ"
      ],
      [
        "our",
        "Ġb"
      ],
      [
        "our",
        "ish"
      ],
      [
        "re",
        "qu"
      ],
      [
        "your",
        "Ġw"
      ],
      [
        "asĠ",
        "theĠ"
      ],
      [
        "now",
        ",Ġ"
      ],
      [
        "ca",
        "mp"
      ],
      [
        "thĠ",
        "ofĠ"
      ],
      [
        "LE",
        "PID"
      ],
      [
        "In",
        "ĠtheĠ"
      ],
      [
        "e.Ċ",
        "ĠĠ"
      ],
      [
        "ad",
        "am"
      ],
      [
        "Ġst",
        "ar"
      ],
      [
        "aw",
        "n"
      ],
      [
        "ph",
        "ol"
      ],
      [
        "Ġma",
        "id"
      ],
      [
        "hat",
        "eĠ"
      ],
      [
        "off",
        "ic"
      ],
      [
        "pur",
        "pos"
      ],
      [
        "chil",
        "d"
      ],
      [
        "Du",
        "k"
      ],
      [
        "Ġbo",
        "th"
      ],
      [
        "DUK",
        "EĠS"
      ],
      [
        "pass",
        "ion"
      ],
      [
        "plea",
        "seĠ"
      ],
      [
        "Pom",
        "p"
      ],
      [
        "jud",
        "g"
      ],
      [
        "Bertra",
        "m"
      ],
      [
        "P",
        "P"
      ],
      [
        "T",
        "ill"
      ],
      [
        "\\",
        "!Ċ"
      ],
      [
        "a",
        "li"
      ],
      [
        "b",
        "our"
      ],
      [
        "d",
        "ar"
      ],
      [
        "d",
        "earĠ"
      ],
      [
        "f",
        "ight"
      ],
      [
        "f",
        "lam"
      ],
      [
        "i",
        "ster"
      ],
      [
        "m",
        "ir"
      ],
      [
        "p",
        "ityĠ"
      ],
      [
        "s",
        ";"
      ],
      [
        "s",
        "il"
      ],
      [
        "s",
        "am"
      ],
      [
        "t",
        "it"
      ],
      [
        "v",
        "our"
      ],
      [
        "Ã",
        "©"
      ],
      [
        "th",
        "ineĠ"
      ],
      [
        "sĠ",
        "meĠ"
      ],
      [
        "in",
        "tĠ"
      ],
      [
        "an",
        "ch"
      ],
      [
        "yĠ",
        "toĠ"
      ],
      [
        "Ġth",
        "ereĠ"
      ],
      [
        "ha",
        "d"
      ],
      [
        "es",
        "t,Ġ"
      ],
      [
        "Ġs",
        "omeĠ"
      ],
      [
        "ea",
        "chĠ"
      ],
      [
        "ow",
        "ard"
      ],
      [
        "Th",
        "e"
      ],
      [
        "st",
        "or"
      ],
      [
        "An",
        "d,Ġ"
      ],
      [
        "us",
        ",Ċ"
      ],
      [
        "our",
        "Ġp"
      ],
      [
        "al",
        "Ġs"
      ],
      [
        "itĠ",
        "beĠ"
      ],
      [
        "eĠw",
        "ell"
      ],
      [
        "EN",
        "T"
      ],
      [
        "ta",
        "vi"
      ],
      [
        "Ġd",
        "is"
      ],
      [
        "con",
        "qu"
      ],
      [
        "sp",
        "eakĠ"
      ],
      [
        "._]",
        "Ġ"
      ],
      [
        "Ġwh",
        "ereĠ"
      ],
      [
        "Ġwh",
        "ich"
      ],
      [
        "Ġwh",
        "ichĠ"
      ],
      [
        "ph",
        "es"
      ],
      [
        "comm",
        "on"
      ],
      [
        "jo",
        "y"
      ],
      [
        "Ros",
        "sill"
      ],
      [
        "eâĢĻ",
        "llĠ"
      ],
      [
        "Egy",
        "p"
      ],
      [
        "fur",
        "ther"
      ],
      [
        "lie",
        "veĠ"
      ],
      [
        "ENI",
        "OR.Ċ"
      ],
      [
        "E",
        ".ĊĠĠĠĠ"
      ],
      [
        "H",
        "eâĢĻsĠ"
      ],
      [
        "I",
        "Ġhear"
      ],
      [
        "I",
        "Ġthan"
      ],
      [
        "a",
        "ir"
      ],
      [
        "b",
        "on"
      ],
      [
        "g",
        "l"
      ],
      [
        "g",
        "ar"
      ],
      [
        "l",
        "yĊ"
      ],
      [
        "p",
        "ati"
      ],
      [
        "s",
        "ing"
      ],
      [
        "v",
        "ic"
      ],
      [
        "es",
        ".Ċ"
      ],
      [
        ",Ċ",
        "For"
      ],
      [
        "you",
        "?ĊĊ"
      ],
      [
        "Th",
        "ereĠ"
      ],
      [
        "Ġh",
        "and"
      ],
      [
        "Ġb",
        "ear"
      ],
      [
        "IĠ",
        "can"
      ],
      [
        "notĠ",
        "toĠ"
      ],
      [
        "ed",
        "i"
      ],
      [
        "wh",
        "ere"
      ],
      [
        "oo",
        "kĠ"
      ],
      [
        ".ĊĊC",
        "H"
      ],
      [
        "qu",
        "o"
      ],
      [
        "sp",
        "ring"
      ],
      [
        "outĠ",
        "ofĠ"
      ],
      [
        "so",
        "on"
      ],
      [
        "FIRST",
        "ĠC"
      ],
      [
        "Com",
        "ini"
      ],
      [
        "ep",
        "tĠ"
      ],
      [
        "Ġwor",
        "l"
      ],
      [
        "nat",
        "ureĠ"
      ],
      [
        "char",
        "geĠ"
      ],
      [
        "cons",
        "ul"
      ],
      [
        "hel",
        "p"
      ],
      [
        "fal",
        "seĠ"
      ],
      [
        "gentl",
        "em"
      ],
      [
        "Coun",
        "t"
      ],
      [
        "hÃ¤us",
        "er"
      ],
      [
        "Oc",
        "tavi"
      ],
      [
        "?",
        "ĊâĢĥ"
      ],
      [
        "A",
        "U"
      ],
      [
        "A",
        "u"
      ],
      [
        "B",
        "E"
      ],
      [
        "L",
        "or"
      ],
      [
        "b",
        "u"
      ],
      [
        "c",
        "reat"
      ],
      [
        "e",
        "!Ċ"
      ],
      [
        "g",
        "er"
      ],
      [
        "g",
        "ir"
      ],
      [
        "g",
        "ro"
      ],
      [
        "h",
        "e"
      ],
      [
        "i",
        "e"
      ],
      [
        "k",
        "eĊ"
      ],
      [
        "s",
        "en"
      ],
      [
        "s",
        "âĢĶ"
      ],
      [
        "t",
        ".ĊĊ"
      ],
      [
        "v",
        "eĊ"
      ],
      [
        "v",
        "e,Ċ"
      ],
      [
        "z",
        "eĠ"
      ],
      [
        "Ġ",
        "P"
      ],
      [
        "ou",
        "ra"
      ],
      [
        "in",
        "ter"
      ],
      [
        "Ġth",
        "ink"
      ],
      [
        ".ĊĊ",
        "TheĠ"
      ],
      [
        "Ġm",
        "anyĠ"
      ],
      [
        "ing",
        ".Ġ"
      ],
      [
        "ing",
        "Ġb"
      ],
      [
        "Ġa",
        "way"
      ],
      [
        "st",
        "at"
      ],
      [
        "ch",
        "eek"
      ],
      [
        "li",
        "esĠ"
      ],
      [
        "e,Ġ",
        "butĠ"
      ],
      [
        "notĠ",
        "beĠ"
      ],
      [
        "il",
        "stĠ"
      ],
      [
        "bl",
        "ess"
      ],
      [
        "up",
        "Ġ"
      ],
      [
        ";Ċ",
        "ĠĠĠ"
      ],
      [
        "Ġwh",
        "en"
      ],
      [
        "EL",
        "L"
      ],
      [
        "lif",
        "e,Ġ"
      ],
      [
        "vi",
        "ew"
      ],
      [
        ",ĊWh",
        "ich"
      ],
      [
        "fi",
        "di"
      ],
      [
        "though",
        "Ġ"
      ],
      [
        "pra",
        "is"
      ],
      [
        "Ġthee",
        ",Ġ"
      ],
      [
        "thee",
        ",Ġ"
      ],
      [
        "fr",
        "ee"
      ],
      [
        "Par",
        "oll"
      ],
      [
        "GRI",
        "PP"
      ],
      [
        "'",
        "dĠ"
      ],
      [
        "D",
        "idĠ"
      ],
      [
        "E",
        "venĠ"
      ],
      [
        "G",
        "RA"
      ],
      [
        "I",
        ",Ġ"
      ],
      [
        "I",
        "ĊĊ"
      ],
      [
        "M",
        "ayĠ"
      ],
      [
        "P",
        "ro"
      ],
      [
        "S",
        "omeĠ"
      ],
      [
        "a",
        "inĠ"
      ],
      [
        "b",
        "idĠ"
      ],
      [
        "b",
        "urn"
      ],
      [
        "d",
        "ev"
      ],
      [
        "e",
        "ousĠ"
      ],
      [
        "f",
        "oul"
      ],
      [
        "h",
        "andĠ"
      ],
      [
        "h",
        "id"
      ],
      [
        "j",
        "ust"
      ],
      [
        "k",
        "sĠ"
      ],
      [
        "l",
        "andĠ"
      ],
      [
        "n",
        "ingĠ"
      ],
      [
        "p",
        "oseĠ"
      ],
      [
        "s",
        "in"
      ],
      [
        "s",
        "la"
      ],
      [
        "s",
        "onĠ"
      ],
      [
        "t",
        "ingĠ"
      ],
      [
        "v",
        "yĠ"
      ],
      [
        "v",
        "ent"
      ],
      [
        "y",
        "m"
      ],
      [
        "y",
        "eĠ"
      ],
      [
        "th",
        "es"
      ],
      [
        "in",
        "ĠaĠ"
      ],
      [
        "er",
        ".ĊĊ"
      ],
      [
        "Ġth",
        "ous"
      ],
      [
        "ha",
        "p"
      ],
      [
        "ha",
        "st"
      ],
      [
        "of",
        "Ġhim"
      ],
      [
        ".Ġ",
        "ThisĠ"
      ],
      [
        "Ġh",
        "our"
      ],
      [
        "li",
        "m"
      ],
      [
        "ee",
        "ch"
      ],
      [
        "for",
        "c"
      ],
      [
        "erĠ",
        "andĠ"
      ],
      [
        "IĠ",
        "pr"
      ],
      [
        "lo",
        "stĠ"
      ],
      [
        "us",
        "Ċ"
      ],
      [
        "el",
        "essĠ"
      ],
      [
        "il",
        "Ġ"
      ],
      [
        "rea",
        "dĠ"
      ],
      [
        "ro",
        "omĠ"
      ],
      [
        "âĢĶ",
        "Ġ"
      ],
      [
        "thou",
        "Ġw"
      ],
      [
        "Ġp",
        "la"
      ],
      [
        "Ġp",
        "ro"
      ],
      [
        "wor",
        "thyĠ"
      ],
      [
        "IĠs",
        "aw"
      ],
      [
        "Ġhim",
        ",Ġ"
      ],
      [
        "Ġwh",
        "oĠ"
      ],
      [
        "se",
        "en"
      ],
      [
        "[_Ex",
        "itĠ"
      ],
      [
        "ab",
        "outĠ"
      ],
      [
        "enc",
        "e.ĊĊ"
      ],
      [
        "Anton",
        "yĊ"
      ],
      [
        "LAND",
        "GRA"
      ],
      [
        "jo",
        "yĠ"
      ],
      [
        "ub",
        "lic"
      ],
      [
        "pres",
        "ent"
      ],
      [
        "my",
        "self"
      ],
      [
        "wr",
        "it"
      ],
      [
        "DUK",
        "E.Ċ"
      ],
      [
        "Pra",
        "yĠ"
      ],
      [
        "Vol",
        "sc"
      ],
      [
        "Sy",
        "rac"
      ],
      [
        "!",
        "âĢĿ"
      ],
      [
        "M",
        "ineĠ"
      ],
      [
        "M",
        "AN.Ċ"
      ],
      [
        "T",
        "ri"
      ],
      [
        "a",
        "veĠ"
      ],
      [
        "a",
        "stĠ"
      ],
      [
        "a",
        "Ġman"
      ],
      [
        "b",
        "la"
      ],
      [
        "b",
        "ut"
      ],
      [
        "d",
        "areĠ"
      ],
      [
        "e",
        ":Ċ"
      ],
      [
        "f",
        "ing"
      ],
      [
        "g",
        "if"
      ],
      [
        "h",
        "eĠs"
      ],
      [
        "i",
        "edĠ"
      ],
      [
        "m",
        "ight"
      ],
      [
        "m",
        "ark"
      ],
      [
        "n",
        "on"
      ],
      [
        "s",
        "?ĊĊ"
      ],
      [
        "s",
        "!ĊĊ"
      ],
      [
        "v",
        "ol"
      ],
      [
        "isĠ",
        "myĠ"
      ],
      [
        "of",
        "Ġall"
      ],
      [
        "Ġa",
        "d"
      ],
      [
        "li",
        "mb"
      ],
      [
        "for",
        "Ġm"
      ],
      [
        "it",
        ".Ċ"
      ],
      [
        "esĠ",
        "areĠ"
      ],
      [
        "ma",
        "sterĠ"
      ],
      [
        "ro",
        "y"
      ],
      [
        "Ġd",
        "oĠ"
      ],
      [
        "ER",
        "O"
      ],
      [
        "sel",
        "v"
      ],
      [
        "IĠw",
        "ereĠ"
      ],
      [
        "know",
        "sĠ"
      ],
      [
        "ong",
        "Ġ"
      ],
      [
        "ey",
        "ondĠ"
      ],
      [
        "tr",
        "an"
      ],
      [
        "go",
        "tĠ"
      ],
      [
        "pla",
        "in"
      ],
      [
        "pla",
        "ceĠ"
      ],
      [
        "though",
        "t"
      ],
      [
        "pra",
        "iseĠ"
      ],
      [
        "ep",
        "id"
      ],
      [
        "pos",
        "si"
      ],
      [
        "res",
        "p"
      ],
      [
        "eâĢĻ",
        "ll"
      ],
      [
        "my",
        "ster"
      ],
      [
        "fin",
        "iteĠ"
      ],
      [
        "gri",
        "pp"
      ],
      [
        "Lola",
        "!Ġ"
      ],
      [
        "(",
        "_"
      ],
      [
        "J",
        "a"
      ],
      [
        "J",
        "o"
      ],
      [
        "M",
        "esseng"
      ],
      [
        "O",
        "TH"
      ],
      [
        "Y",
        "es,Ġ"
      ],
      [
        "a",
        "p"
      ],
      [
        "a",
        "u"
      ],
      [
        "b",
        "ir"
      ],
      [
        "b",
        "it"
      ],
      [
        "c",
        "eed"
      ],
      [
        "m",
        "at"
      ],
      [
        "m",
        "e.ĊĊ"
      ],
      [
        "m",
        "ind"
      ],
      [
        "v",
        "ing"
      ],
      [
        "Ċ",
        "In"
      ],
      [
        "sĠ",
        "haveĠ"
      ],
      [
        ",Ġ",
        "youĠ"
      ],
      [
        "ar",
        "Ġ"
      ],
      [
        "on",
        "eĠs"
      ],
      [
        "ea",
        "t"
      ],
      [
        "âĢĻ",
        "st"
      ],
      [
        "Ġa",
        "Ġm"
      ],
      [
        "ee",
        "chĠ"
      ],
      [
        "lo",
        "t"
      ],
      [
        "ĊĠĠĠĠ",
        "S"
      ],
      [
        "ri",
        "ch"
      ],
      [
        "il",
        "dĠ"
      ],
      [
        "ingĠ",
        "toĠ"
      ],
      [
        "eĠw",
        "ord"
      ],
      [
        "wh",
        "oseĠ"
      ],
      [
        "ro",
        "b"
      ],
      [
        "fa",
        "llĠ"
      ],
      [
        "be",
        "y"
      ],
      [
        "be",
        "for"
      ],
      [
        "Ġd",
        "e"
      ],
      [
        "Ġd",
        "ostĠ"
      ],
      [
        "ca",
        "llĠ"
      ],
      [
        "end",
        "sĠ"
      ],
      [
        "wor",
        "dĠ"
      ],
      [
        "IĠs",
        "ayĠ"
      ],
      [
        "pr",
        "of"
      ],
      [
        "IĠam",
        "Ġs"
      ],
      [
        "str",
        "eng"
      ],
      [
        "dea",
        "dĠ"
      ],
      [
        "des",
        "p"
      ],
      [
        "pa",
        "ir"
      ],
      [
        "pla",
        "yĠ"
      ],
      [
        "fi",
        "el"
      ],
      [
        "then",
        ",Ġ"
      ],
      [
        "see",
        "k"
      ],
      [
        "coun",
        "tĠ"
      ],
      [
        "cha",
        "in"
      ],
      [
        "sha",
        "d"
      ],
      [
        "pre",
        "tt"
      ],
      [
        "chil",
        "dr"
      ],
      [
        "that",
        "Ċ"
      ],
      [
        "vill",
        "ain"
      ],
      [
        "Au",
        "fidi"
      ],
      [
        "ERO",
        "S.Ċ"
      ],
      [
        "E",
        "phes"
      ],
      [
        "F",
        "l"
      ],
      [
        "I",
        "Ġhop"
      ],
      [
        "L",
        "epid"
      ],
      [
        "M",
        "adam"
      ],
      [
        "a",
        "dĠ"
      ],
      [
        "c",
        "ul"
      ],
      [
        "d",
        "ri"
      ],
      [
        "h",
        "ither"
      ],
      [
        "h",
        "olyĠ"
      ],
      [
        "h",
        "ouseĠ"
      ],
      [
        "j",
        "ur"
      ],
      [
        "k",
        "enĠ"
      ],
      [
        "k",
        "indĠ"
      ],
      [
        "l",
        "ingĠ"
      ],
      [
        "r",
        "an"
      ],
      [
        "r",
        "en"
      ],
      [
        "s",
        "um"
      ],
      [
        "s",
        "._]ĊĊ"
      ],
      [
        "s",
        "inceĠ"
      ],
      [
        "v",
        "il"
      ],
      [
        "w",
        "is"
      ],
      [
        "w",
        "ard"
      ],
      [
        "y",
        "iel"
      ],
      [
        "ĠĠĠĠ",
        "S"
      ],
      [
        ".Ċ",
        "IĠ"
      ],
      [
        ",Ġ",
        "toĠ"
      ],
      [
        ".ĊĊ",
        "V"
      ],
      [
        "of",
        "Ġthem"
      ],
      [
        "Ġs",
        "eeĠ"
      ],
      [
        "you",
        ",Ċ"
      ],
      [
        "ĠtheĠ",
        "f"
      ],
      [
        ".Ġ",
        "AndĠ"
      ],
      [
        "toĠ",
        "aĠ"
      ],
      [
        "Ġh",
        "owĠ"
      ],
      [
        "ch",
        "angeĠ"
      ],
      [
        "li",
        "ber"
      ],
      [
        "e,Ġ",
        "sir"
      ],
      [
        "IĠ",
        "canĠ"
      ],
      [
        "ra",
        "is"
      ],
      [
        "un",
        "t"
      ],
      [
        "EN",
        "AT"
      ],
      [
        "youĠ",
        "toĠ"
      ],
      [
        "di",
        "e"
      ],
      [
        "be",
        "gin"
      ],
      [
        "ca",
        "s"
      ],
      [
        "ne",
        "ck"
      ],
      [
        "ec",
        "tion"
      ],
      [
        "um",
        "ent"
      ],
      [
        ",Ġs",
        "oĠ"
      ],
      [
        "tt",
        "end"
      ],
      [
        "cr",
        "os"
      ],
      [
        "vi",
        "ceĠ"
      ],
      [
        "arr",
        "y,Ġ"
      ],
      [
        "Ha",
        "th"
      ],
      [
        "kis",
        "sĠ"
      ],
      [
        "lor",
        "dĠ"
      ],
      [
        "IĠknow",
        "Ġ"
      ],
      [
        "too",
        "k"
      ],
      [
        "far",
        "Ġ"
      ],
      [
        "answ",
        "erĠ"
      ],
      [
        "III",
        "ĊĊ"
      ],
      [
        "comp",
        "an"
      ],
      [
        "pleas",
        "ur"
      ],
      [
        "Egy",
        "pt"
      ],
      [
        "Hel",
        "en"
      ],
      [
        "Pomp",
        "ey"
      ],
      [
        "A",
        "gripp"
      ],
      [
        "G",
        "E"
      ],
      [
        "G",
        "EL"
      ],
      [
        "G",
        "IL"
      ],
      [
        "H",
        "ear"
      ],
      [
        "P",
        "o"
      ],
      [
        "P",
        "er"
      ],
      [
        "S",
        "ayĠ"
      ],
      [
        "a",
        "k"
      ],
      [
        "b",
        "an"
      ],
      [
        "b",
        "oundĠ"
      ],
      [
        "c",
        "al"
      ],
      [
        "c",
        "tion"
      ],
      [
        "d",
        "evil"
      ],
      [
        "h",
        "orn"
      ],
      [
        "i",
        "g"
      ],
      [
        "m",
        "usic"
      ],
      [
        "p",
        "or"
      ],
      [
        "r",
        "eĠ"
      ],
      [
        "s",
        "ess"
      ],
      [
        "y",
        "-"
      ],
      [
        "Ċ",
        "ĠĠĠ"
      ],
      [
        "Ġ",
        "M"
      ],
      [
        "th",
        "oseĠ"
      ],
      [
        "sĠ",
        "upon"
      ],
      [
        "yĠ",
        "isĠ"
      ],
      [
        "Ġth",
        "enĠ"
      ],
      [
        "or",
        "Ġs"
      ],
      [
        "Ġs",
        "w"
      ],
      [
        "Ġs",
        "ayĠ"
      ],
      [
        "ea",
        "dĠ"
      ],
      [
        "Ġm",
        "e.ĊĊ"
      ],
      [
        ".Ġ",
        "B"
      ],
      [
        ".Ġ",
        "IĠ"
      ],
      [
        "Ġa",
        "Ġp"
      ],
      [
        "Ġh",
        "ereĠ"
      ],
      [
        "st",
        "illĠ"
      ],
      [
        "edĠ",
        "s"
      ],
      [
        "edĠ",
        "him"
      ],
      [
        "li",
        "eĠ"
      ],
      [
        "no",
        ",Ġ"
      ],
      [
        "Ġb",
        "l"
      ],
      [
        "e,Ġ",
        "myĠ"
      ],
      [
        "esĠ",
        "theĠ"
      ],
      [
        "un",
        "toĠ"
      ],
      [
        "al",
        "on"
      ],
      [
        "AN",
        "GEL"
      ],
      [
        "eĊ",
        "AndĠ"
      ],
      [
        "e,Ċ",
        "ButĠ"
      ],
      [
        "eĠw",
        "hatĠ"
      ],
      [
        "asĠ",
        "aĠ"
      ],
      [
        "youĠ",
        "ar"
      ],
      [
        "di",
        "eĠ"
      ],
      [
        "di",
        "dstĠ"
      ],
      [
        "aĠ",
        "andĠ"
      ],
      [
        "meĠ",
        "toĠ"
      ],
      [
        "!Ġ",
        "TheĠ"
      ],
      [
        "ter",
        "n"
      ],
      [
        "be",
        "ing"
      ],
      [
        "eĠs",
        "o"
      ],
      [
        "con",
        "st"
      ],
      [
        "OR",
        "IN"
      ],
      [
        "pr",
        "oudĠ"
      ],
      [
        "ex",
        "p"
      ],
      [
        "gi",
        "vesĠ"
      ],
      [
        "PH",
        "O"
      ],
      [
        "sw",
        "eet"
      ],
      [
        "per",
        "ce"
      ],
      [
        "II",
        "ĊĊ"
      ],
      [
        "str",
        "essĠ"
      ],
      [
        "IR",
        "GIL"
      ],
      [
        "de",
        "light"
      ],
      [
        "sa",
        "meĠ"
      ],
      [
        "letĠ",
        "usĠ"
      ],
      [
        "mo",
        "ck"
      ],
      [
        "br",
        "ow"
      ],
      [
        "eĠwh",
        "oĠ"
      ],
      [
        "cur",
        "s"
      ],
      [
        ",Ġwh",
        "oĠ"
      ],
      [
        "litt",
        "l"
      ],
      [
        "SCENEĠ",
        "V"
      ],
      [
        "IL",
        "V"
      ],
      [
        "ID",
        "IUS.Ċ"
      ],
      [
        "foo",
        "lish"
      ],
      [
        "Ġhon",
        "our"
      ],
      [
        "Up",
        "on"
      ],
      [
        "hor",
        "s"
      ],
      [
        "col",
        "our"
      ],
      [
        "&",
        "Ġ"
      ],
      [
        "A",
        "E"
      ],
      [
        "B",
        "o"
      ],
      [
        "E",
        "B"
      ],
      [
        "G",
        "r"
      ],
      [
        "H",
        "ea"
      ],
      [
        "I",
        "ra"
      ],
      [
        "M",
        "oreĠ"
      ],
      [
        "T",
        "illĠ"
      ],
      [
        "a",
        "idĠ"
      ],
      [
        "b",
        "el"
      ],
      [
        "b",
        "ell"
      ],
      [
        "e",
        "ign"
      ],
      [
        "f",
        "et"
      ],
      [
        "f",
        "ill"
      ],
      [
        "h",
        "ar"
      ],
      [
        "l",
        "y.ĊĊ"
      ],
      [
        "m",
        "ur"
      ],
      [
        "m",
        "e.Ġ"
      ],
      [
        "n",
        "edĠ"
      ],
      [
        "o",
        "tĠ"
      ],
      [
        "r",
        "in"
      ],
      [
        "th",
        "i"
      ],
      [
        "sĠ",
        "inĠ"
      ],
      [
        "tĠ",
        "ofĠ"
      ],
      [
        ",Ġ",
        "IĠ"
      ],
      [
        "of",
        "Ġher"
      ],
      [
        "Ġm",
        "on"
      ],
      [
        "Ġm",
        "e.Ġ"
      ],
      [
        "Ġa",
        "s"
      ],
      [
        "Th",
        "anĠ"
      ],
      [
        "theĠ",
        "c"
      ],
      [
        "ĊĊ",
        "C"
      ],
      [
        "st",
        "ayĠ"
      ],
      [
        "edĠ",
        "in"
      ],
      [
        "li",
        "vesĠ"
      ],
      [
        "it",
        "y.ĊĊ"
      ],
      [
        "esĠ",
        "toĠ"
      ],
      [
        "em",
        "bl"
      ],
      [
        "sh",
        "epher"
      ],
      [
        "wh",
        "er"
      ],
      [
        "fa",
        "il"
      ],
      [
        "fa",
        "therĠ"
      ],
      [
        "fa",
        "vour"
      ],
      [
        "OL",
        "AB"
      ],
      [
        "thĠ",
        "isĠ"
      ],
      [
        "kĠ",
        "ofĠ"
      ],
      [
        "US",
        ",Ġ"
      ],
      [
        "know",
        "led"
      ],
      [
        "Ġst",
        "or"
      ],
      [
        "str",
        "ang"
      ],
      [
        "ever",
        "y"
      ],
      [
[...]
